98AB1CFF
2B1E0141
09688002
84FF497B
886C7FF0
D8D34B5B
50419230
BDA3014C
AA7D975F
D103FFE6
625F3EDF
B191FFFC
2ABE257C
F74DB4FD
485E0401
0C684243
A06BD0FA
2E141550
F4A19726
F0A1FDFD
812BCE76
0604A16F
438E7BD7
90265F78
11D96FC1
ABD67EA2
B7365CD7
28008114
AF8ABC8C
D620BCE0
45B10200
F91CCFE9
0925B655
F1096C7F
D529D1FF
DFD641BF
2BF77A69
98C16821
E8581DB8
69364C50
39D5FD00
02429FF0
8B35F6D4
A4B2FE5C
EB47DFBF
DF22C80D
4F915F12
8D76D420
2B9FF006
4EC0DFB2
41E0B54C
F1F7F95C
678C01E8
5423DEAE
3BE0F7D2
4EDC25B3
E6FB9BA3
25081F81
D11D8DF0
6D5EE345
F85FD1FF
5C632CC9
015A20DC
C5ABF061
ECA09FD9
DE558015
0CA63D25
15B9760A
DD3D98E4
94F03C20
A24AA002
1D600008
8659F25B
11DE0300
BF17DEBF
CBC697E1
F5A1F356
ED10ACFE
731A0BF6
F53CBFFC
DAD964DF
59741531
1AE123FB
0C3156C1
62A36E8D
E698ADBD
86836418
70D682D7
2BF10EE8
0757FFF0
1EC8C5E1
16D52E45
541D6401
6D938513
9D8AE022
76A3656E
422E7D09
3BC28601
D213829D
2D0F6382
E1DC89D4
DC8410AF
0F26A15F
2DA24091
163A045A
27D28680
903B00F9
CE7036BD
DE2FF837
FE9D001F
02E0BF00
BB2FA2FE
83934BA8
49284EE1
4722076B
2CC65009
47617801
BFF8427F
4FF84880
829900A1
E1287C7C
1B680C1D
B742948D
E00CA82F
0770FE47
85BBBFF8
B86DC114
25A44893
