DC0A8947
4A420651
BB8087CC
E0302198
5BEE767F
C478E6EF
00FFF17A
3FF481D1
00008248
7F003893
DFF77FF9
CD37FF02
A20051E0
EDBFBAB7
7CF4F3F7
60562551
493FF236
43FF43AD
7E6D639D
5DFFF26C
98E0EEC8
C0FD007C
003FC530
31C91C30
44A1F939
2034014A
D47F43C1
FFB2FFEE
18C03EC7
7C7B009E
90D98725
FB1E507F
DF400CBB
A1E13479
14FCBCD9
01F10D6A
8492ADD3
1A7AA9ED
6F02856F
42BF0186
A47EE226
5747FD81
D8700274
F7D7FA2C
7FE3F9F7
B97CF4BB
03F01FF3
B03F41DC
F2F00052
1FC008A2
53C83F2B
423F8590
A69C0978
6FCE394C
DE62B4C1
2C012944
51F8A3D4
7FFFF920
B00CDA3C
958CC3E0
A8401F34
F5FEE75E
00780132
D3EBFC8B
EF808132
400023FA
2031807B
CF7C2A07
7B7DCE93
2FF17B2D
0FF003FC
000005CB
9FBFF0BE
61F00475
BF12DE53
01B62E16
3FD00947
2E00385B
800B71C4
C2F02C20
380C3F0F
443FE03D
7F7F04FB
DD615DAB
3B0FDD2F
F707F9BF
A8FEA03E
0B780EBC
F380DDFF
20029B80
FDF8705F
C03C07D7
D2EFFD7A
C3BE861C
C87F82E6
C70A60B4
89B09FCC
2C0FD9C7
85003EF0
CAF6869E
CE100AAF
87F0433A
7B823E0F
EAE7F6E7
4002C2F8
9EF75071
9ADFE23F
BA87FF2A
1416B691
40480C28
BD76FC19
803F03C2
EAEEC0B6
932D6EE6
BFB01D59
0035C3A0
F5CFDB17
E03E01F8
503AC3D6
7F00573B
8B83D90B
DF8DD75B
97C73FFC
1F8112E1
21720A7E
FDDD7009
49005E28
5FE10C3B
