A5FCF7BA
92201B01
C9E9F80B
9DFE0FBD
BC000F2F
500F005C
C0CD6549
5C3FC0E9
E7E7429B
4C081C24
3E007C58
204C011E
E79F883F
504F0119
D002D8BE
0B40FC08
D5E80D15
386FE1EE
56BDF20A
896FDDA3
B87F3725
A89FE01D
F03533B2
B84F00A8
60D07F24
7373204E
F703505A
582B8852
DE084E30
9B322FD9
9AB3FE35
FF073515
F40201DC
899F8485
82560F63
5FBE805E
08061F8B
F000E009
34F9FFEA
87E17DAD
2C023CB4
64401514
C31603C4
3041F380
CE14114C
6E01EF40
68107E01
E8C31EC5
E104ED30
D2C81773
1AC0E823
CFC0A402
A00FF3D5
1788B780
BDFFE2DC
4FFFF774
1F73ECFE
76F8CA3A
72BFFFAC
503F90B0
DC009FD3
D984713B
79F10098
B848000D
33EF7C57
93FB6F7D
10FEA141
9C9C038B
2679A6EF
98C1870B
97F1FFF5
EB2BFC8B
9D409229
9C82FCB1
CA5E22F5
B9B00503
DC4081CC
9BDFE037
CF43B64C
40401FF5
218E029D
8DCBF6D2
C03F802A
68C08820
4321C862
11CFD076
4C407E6E
3C87D23F
5B8BF061
86E21FA1
C20F5FC8
C1E7F52E
53C3E05A
881CC546
CFA43E89
46326E5B
0800BAC3
77FDCB00
A7042E7F
9844067C
D80BE327
377F7E34
600E8128
BBC7BBC5
7FD7E942
27E00537
AB5FE265
F9AFA536
A82E0763
6F7F84E1
08807911
BBE0457D
67C05F76
4C02F7A7
D8070793
5DF9FFDB
25C02390
573F5691
2210BEDB
C6FFB23C
48F85006
1ED8FE90
863102C1
00FF0028
6E421D2E
B0009298
AB6B7FE1
509F2CEA
