C05442BE
3FE1F1BF
94FE176F
013255C0
7F5F2DFF
827FFEBF
9FFC6CFF
F2885E70
0000D850
E05D1667
E0CBD1BF
D28FC070
00200848
03F78060
87ADB77C
01983A01
2BA49085
EB7C2B34
B87C5915
0FFED100
0201EF80
CFD01F05
01FCBE80
FC05FBB7
1F4F43A3
A72635DB
03FC55CC
E01F793E
DC5F9F29
3FEE998A
3CF413B7
F1920A3C
FE00430B
BC00A5EB
275BEA44
72006C7E
0741C2E5
FAAD58BF
60462D6F
D7F2A79C
03808900
A7F17F0F
20220B00
B87EA87F
10FEFACA
E2DBFCA9
7F01B6FF
03FF9A01
02942400
F8000E5F
FF86DDFF
00FF1F00
668097C4
F9E5D568
E41C1A5F
20007D2E
D5E9FE60
B5FFB7BF
01F37901
90F42D77
00D04100
1EB98DF5
8100250B
3FE7A3C9
680012AC
04206A24
23D40BE0
87F04EA8
02E475FB
BE1F8FFF
38CA584D
10106E53
7C7D9393
3F0CBDFB
A2015EE2
1FC4224E
FE07CAFF
E1016A7D
83FF8D60
BC01CE07
F000EE9F
2FFFD692
F8FC24FD
761F5E6F
F8FBCF3F
F8D48B9E
4BF68C62
478DCEE9
F50F447F
00FA92A8
FF88BABD
A3501E56
58FEB53B
7BE4DC10
07FDDD70
B0564A30
65CDDF58
623B91FF
55014D1E
8FAE1269
81C02E17
9F0017FE
F7C0DDBF
0BFCCE63
047BB3B4
642FE87C
D9FC1A3F
D8526DE1
04FE86E8
008A70C0
FE36E3FF
00C00716
8BFE3D51
813E46A0
FF0867FF
00DC0020
7FFFCF5F
03E0EE40
02D50884
FC09047F
C82F2E39
F03E1236
CC33E57C
F910F2BC
D6852B8B
B7AF977D
00002CC2
FE21477F
