E9F5A403
25128639
FAB731AC
0F8047BB
9F9ECC7D
26E7E78C
1FD5A2B8
8FF6B781
06068887
ACB44041
77FEF588
A062C093
8D803F0D
F6261AF3
BFFF514F
5FF37F5E
A142989B
766B5BFB
A2AC89D6
480027AC
17E80151
FDE639B2
EDC9ED9E
246F314F
FF5FCD08
72A1EF3E
7FF5EF13
FFFF7473
2C94C849
A2227E15
1E75ABAF
95D244F7
0F52A871
9E4ADA95
0482E300
F2FBA915
6DD863BC
8EF886DE
7E56E606
50D6DA1B
28810098
1E7B618A
82C1C1AF
9FFF23AF
5E5EC2D0
5E70820F
D2E420C9
9F744649
FE4FD070
B3A775EB
72C7A78A
F655FB9C
5B9859D1
D10C551E
10115334
1191A2EE
727F49AC
DFB75B65
FAD10DB0
1412867F
CF7BC7B6
4DDF7AA7
4F2DDF6F
3FFBE0CC
6C44B99D
F04B21EF
6443217A
14FFCD6C
5F1FEF77
708D7DC9
E62FBEAB
383BD99E
AFF4543B
7BCC9F65
113A1EC2
1C40A36C
91B730C2
0D31261B
0003501F
49846F08
E022B325
0CBA1CF8
6BFE947B
4BDEE005
A9D1AE87
CA30C4AF
0FFECD4B
1F8FA82E
A619E95B
50001914
74094B51
B44150FD
1B7D0FB3
24D8A4E4
7FFEA6F4
80001188
4F45F25D
20F41FD6
08C0614B
FFA7DA1C
5FD2105D
E2E648AB
7FAF89FB
A9D10827
F101A780
EDBE1C82
1F8F8550
F00844E4
156EAB4A
ED3448C0
969D6358
F0DD47B8
B81003C2
34E17D3E
7DFE0E77
E304A3D5
2A4D6AB3
0783F8F8
FBF6F7CE
D205F053
4AE85929
05FC2391
B287E362
67F3BCFD
4E36CEF2
11AF4620
88802F5B
D832E129
