C813F87A
3847288F
C0F3E0FD
ED108E0C
FF99402F
8196FF01
0F46C268
E6520F32
3A1FFE60
E18A007E
1B340059
16003C00
4841FFDB
02580F80
06FB4FFE
81990BFD
67BFE810
EE0E0FF3
D86A3EF6
4690EA9D
23800781
C39C87FA
32E87245
28580E80
0194B926
FCB6607F
4EAC8FD2
D6B6A764
F7301F40
F8A8371B
A7A4A3FC
0B7F4116
01881FC4
8B81DD00
043CF601
F69BFFAC
1398E604
2F2FE0DE
DF48B9FA
E90E003E
1CA10C0E
150C204A
FFFD6787
10CB58E9
A6680A40
007DD049
EB37F062
CFDD05BE
0D5003FC
3A0A7882
491720CF
0B69C0C0
418007C8
0C1BC43C
FF6FFFF2
EAABF9F3
B251318C
F977D062
0D15DEE7
BF3117E5
831813F4
F69E0002
F8215FF6
42C80E44
4ED0FFFC
B80FFDDB
1F500FC5
E6921FB2
6FD0161A
2202B0AC
78ABD0BE
EC67F7FE
1CAA000A
FB73C17E
02881F00
1EC64005
1F9D9688
1B6FFFF2
790BFA0B
1CF2E817
2753FE9C
543C09FE
ADBC0FE2
F2BD3668
097FE4CA
EEFF9EFC
E7E7C173
05D92680
F97FC3BA
51C74FFF
B4DD0003
F13773FF
029DFCF8
06202F70
73918017
9243CAA1
07243D41
7CA7FDC7
74AFE81F
3EAAC43F
608887E6
3DAF83B8
C26A07D0
01D583F4
4E8DFF77
F40FF167
017FEFF4
CBDDFB60
FA309F84
0CCB7E53
E18F01FF
09CFF890
32F6005B
02582876
8389A79A
33A5FA7F
7F49E00B
1E9E47A2
45405F63
F04FFFED
E5A7FC19
BB10807A
5561E747
A38C7F66
65390FA3
3E630001
22A1F92D
35D925EB
