4F27F661
F9D50013
406D5983
A2FDA46E
57E1B041
0D749FF3
28B0457A
076D9FD4
D2983FF9
DEA1FF7C
039572FC
631B7FFF
EEFE8107
269C97CF
02AB196B
3BB3B3E0
06EA0FFA
87428BCA
4C5BB261
434FE037
D8F5E5F9
FCE27A82
130DEFE4
F7B01533
2434103D
476A03C0
44F4BF40
5EE0A4EF
FB5C81AC
0247E188
853FE11A
EFBD282F
F6CF5D4B
A7710C31
EE220BBE
0D6A01E7
B1FE85FE
64F92AED
146FF5C8
81B7A0B6
1A2527FD
5CCEFFFD
09C66FF8
08D4FFFA
00B3FFF9
422EE2D8
4B82F006
57BD61ED
035CAEEC
B8221FFE
B9E49007
614B9FF6
469B7724
F1289B5E
9BF8497A
F2274A66
6ADFA70D
90A17C47
01AFE5AA
C3F2A4D5
F41FEFFE
9BCA0640
45E31945
8E86B6EF
A50D7FDD
4D16C022
4561FA70
0054BFF0
EB68A92F
08C90F52
DDCA1241
476CC004
6A4D581E
062D7400
F152E8FF
EBB4187F
77493A4F
EDF6F503
06FA2680
7F27EFB3
FDECC83F
2256DC08
39885A38
92284FFF
F50933E7
B4FED04B
41DE7FEC
0DC2EE5F
97018017
5627134B
F9149807
BAB7088A
7DA821FF
5F1AEF0F
590E53B4
C227757E
179D2AFD
004C0045
D520001B
6C531F7C
723BC72D
F9B04002
1B957E86
2DB6D033
A1D80029
02B617F0
D6C0B02D
FD3B08E7
CA8A7448
4241611C
DDB88661
090DEF6D
DB77C120
A60BD005
3F233009
112F54F2
C67A900A
5FABE8A2
0E92E480
D0500014
3A40B7BF
44CBFBE0
DF4E6FFE
3649CFFF
702E8E7E
FEE32106
DFC0C80F
FD200047
