D556DAE8
D4609DD7
21C40E93
FD46E2DA
D3EAC82B
15797E4E
87FB4BF7
84D58B83
FE842385
18B7B8ED
9FFC8627
103FE8D4
C940254B
4E1F1897
75D5E080
FBE80E16
516C9A2D
A011B69D
84C03D39
FF56000C
78EFD0F8
5F44352E
7B8D2CE6
C96B5D15
03FF8E36
78349FED
BFE407A8
A196F0B1
C0FFAC66
86A38840
E7D00347
CE29E37C
63DBB5EF
24451C87
001265E1
E109EFFA
F2730199
0BF89A18
2334B410
19CC4801
A35502DC
7DDF7954
5447ECE3
EBBFF56B
605FDA2D
EACEC90F
0BAF5609
4F3F8B98
777042A0
89BF80A7
AB40532C
CE1003D4
0CD3C88F
8FABBD20
F208B40A
F8607E7B
7FCDDA69
0E4FE2A7
04F4A41C
F752F803
CBA65797
F5E398F7
A56027DE
CCFF11D4
5B59B685
98901297
EF8A82D9
DBFF8DC8
5DF86F45
087D0554
03802A18
2FF3FB06
6F9A40FC
CFE80FA9
A4AF6196
1A0A09FA
E401DCC0
6C11BD85
FC6881D8
B4FFD91A
AF8DFFFF
1B109A84
E26D33FD
7FBE395B
76FD382D
A046CB7B
ABFB1467
C76A6638
D430BFC7
F8438611
3E018B47
49204783
87F2BABB
A327CBE5
45C502E2
9068B822
97F98CE6
AC0528CF
0561689D
AF84505B
272F329A
424069F7
AF69BA0A
AFCD4E11
7282B3EE
2C9506EA
4DAB7C35
661A2839
DC1A8142
D5601886
CDEBFA57
83401461
BCF5C2F3
D3BD9547
F5AF163F
8338CB4A
9AD34F75
A1AB57B3
07DAFA05
8A99FCDE
39FFAEFD
90AB500C
8A4BEFAB
15CC399B
5A509169
227F9A28
A5460415
0CCD07A3
