58031F40
7FA38010
1BB7D841
8E7B1DF1
A1B22BF2
8DBB3192
C80E9411
530E9BC0
F67A2EFF
FF36C33F
D146C4B4
0AE6A6FF
DFFA437F
90327EFE
7AA8503C
36D07608
050919E5
371076E8
1971DBFE
864677EC
FC89BFDF
8C7ABAA8
FCC556FF
FB8783CD
5728F40A
9ADE00E4
251ED8F8
1B0A8841
F9C3EBCA
E82399D7
27B9A806
19B8C046
CE137977
6D467916
D9F970EF
3F7B160C
3FAA6113
2E306B30
F00D8FFF
FB3DF1FA
7B34C37B
26A066E3
568F4FCA
40010DC4
8560E5FF
8D317592
5DEA7380
7FAD7C4C
FD8C7FD9
FF7E8A17
1EEF0500
D629AF7F
76512E32
F3AE039E
153C017D
9FF69816
CE535AA0
227A60F0
70E4FEDD
45EED62B
A1FAFFBF
3AFCA002
97883800
708A6542
A9A1DFFC
FF9A7D4A
9309FDF9
98E18DF2
6157A9FE
4D42B322
BFDCA409
0F6E5502
1D6F132F
08FFFE80
F95C68ED
E08852FE
21D80CC0
495057DF
B40D15F5
FA8B7ACF
4B9FE003
011F3CA0
78D1C422
494860D3
8AC0952C
38964A27
51445440
451783B5
079BE2C1
FDBDB0FE
76459200
A4D33200
243BC091
5050794C
9070B6A7
F849BFFF
7735CBAE
0F890020
6FD42E03
BFEF48C1
3E355DC1
1EE72401
A679FBE1
92803E04
A39AC168
3EB99C15
844B7D08
8AAF043E
D830729F
D94977D6
4D8B218A
00854530
9018D3B2
B8DC1E83
FEF77200
D170E781
FB509048
FD3FD99A
00DA1FA0
3725AC90
B2E2776F
C844EF7F
D1CC2BF9
5EAD44D0
FE3572BF
93F010FF
EF47930B
7C03A002
