720F5583
A72E7C7A
455AE348
5A67CABE
638B4562
F9183047
6BE07653
05732AFE
56E80189
51AF98B8
E15CEF6E
5CA956C6
46312948
9A259284
7F8BC6EA
F94160E7
97CFEC47
697E0959
D8057F33
80106945
0454B804
6F03E6F3
1FF6F675
B72E5E67
0FDBFF3B
9037FDBC
9054198E
6683699A
F9A16447
15BC9113
18279EDB
B2D0A745
B70BCE76
9F278750
B8309F03
EEA1C4F3
0411A1EA
B2431EE7
6FA184F3
D89C9EC6
813D2103
4CBC82A1
BDA6EDF4
50CC79A1
6BCA74DA
684A53C7
E595EB0C
06F42968
D12B6FC3
D1C8A63A
7ECF5C73
0590E95C
509D6D3D
93C83543
AE6392BA
46DB811B
E0A0AA06
0C2100AC
F821210D
F16A8B86
4896A200
5F526DCD
42DD9B29
B1EC3B0D
