F87E1BA1
78922C01
77244F01
C862789E
807F3880
85442540
02805640
6FC25043
AA9EB0E0
00383991
007DE0E2
C07BFFFC
8EEA436F
5ED8DDEF
00887D54
05AA3E88
405E43FC
2A085640
FF53E83F
06455AA8
BD7709EF
03027940
9BB77F91
D61ABFF6
012023C8
BC008B47
0010DBE0
54A07682
C12B33F8
7877E2FD
1F20CE00
1C01D4E1
C11621BC
ED1DF979
903FFEBF
A9822EE0
0034F460
81C409B0
98FD15C7
FC5E0227
6F8BFBBE
40081606
E1F3CD7F
206646E0
20DF91FB
03FF5DF8
C09A3017
00990140
5449E114
40FEBB7B
00DA37A0
B133EE7D
0FB1C5A1
0FE088F8
FE0AC62D
7FDD9642
2DEBC4C6
B4005203
008A3340
17002D02
87FDF7F7
7F001F05
FA5EAF13
40EF40FC
50FDA8CA
7BF6F634
F8BE2146
381D8206
3BC68E7C
F02CA03F
DFDC9211
5FC98E00
DA08C79F
03F8A180
BFDFEF7F
61268F2F
712BAE11
DDC85980
F399876B
007FD7D8
4A881F4A
87F271D0
7E207002
002A547C
0599FDC0
D6487CD0
00288EBC
03BBD86C
7F201C08
84ED6378
5FC6CFCF
FB843305
61126650
0F86D780
635EC2D6
3FFF2EFF
01779BF8
FF815C1D
02DE3961
307FFF02
0E710601
2E3F1F00
06050108
06C3AF60
FE813AE7
E25C2F3F
032E1200
A75215BC
5E2FF7BF
FAFFF47B
21205319
004F56B1
FC2F100F
04A31A6C
162C4395
47FF00A1
40401CF8
009EF440
00FFDFA8
FE012614
41F8F13E
41BE0F4E
FD0115CF
3EA49703
81125B55
1A01173A
8A2F8323
FF08A80B
