28442CEC
4DB0480F
03BE93FF
4D94CFC6
FE38CB2B
BAAE33E6
07FD11F2
92E28F64
9182399A
F4A13539
3392D7D0
50D59873
055675F0
51D75C02
921EEC4D
9153486D
8C4E67F4
6E1A2D97
F8250DAD
3B4D7593
120882D6
43EF13B8
2527C742
F8933D17
C47F61C7
DE426391
6FD7BE28
8335DCE2
DC43E972
BFF95699
21E0F646
5C059803
72BECA80
4DD515D0
F4E06896
BDE825EB
6FA9C8AE
3CA4E246
747A47CD
60D4817C
A8AA64C9
4229C2F4
9435B7FB
43B60A52
45B814E3
14798A55
09B9980D
2F05DE68
FA15A32A
C6E757C8
E63CAC2D
033CC7D0
44EA4320
40BFC7FB
96422DB1
6E2275DB
43B55256
E05D90E0
FACCBE3D
B2B19530
076ECC0D
E90CE86A
17A873D2
20C5D032
A7F4B9BF
9F6DB240
F1EEFD4F
31A18967
E1C4DC45
ED254027
14422471
F1232D35
7C32F56A
B8F31793
03119BF9
CDACD7C2
8D72E4C7
5441A209
78A1D923
F4ECD646
66908F28
A15043DB
786CE421
BB3572BA
D1888CB7
1ECA233D
8317229A
0DFC81BF
040302F6
6E62897F
96C743D2
F4519955
5633DD2B
0DF997DA
243E7265
A25848FC
43A4DD1F
0F04E049
D3A4E543
6ED55742
FA426A96
7C023D85
7822D64E
620F213D
FA0CAB90
24FEA507
FA391358
069D0852
861CCFCD
EF336212
F8526BA6
EFDB23FF
0BB8F748
E4CD6AB3
BE77704E
E9CB6DCD
6F2E6548
405FC033
52A5C84A
28974206
60AEF808
B915D2E3
E9B102D4
40FD81EE
ACC06FB3
26C2D58F
62681A35
080EC6CB
