CDA0263D
FD1C4CEE
FCE3F432
D5B0EFC7
B3363CBE
F1DE2C24
3D636DF0
2FA2D0C3
E3980F46
92DF4C94
E13BA411
401436B2
ED804E34
525CFACF
67D9DFFA
4DD16ADB
88130752
4EE8BA55
B55266DE
04239735
89F81B18
797A678D
1E9701FD
65D653BA
37C06978
A1FFC9C3
E97B9DAB
CD1ED60A
712B129F
BF0A2123
E43E5D6B
CD63AA92
B07F80BC
0790ACDD
C0074088
BFD7C23D
ACB11C43
03B87BF8
A5B59097
D146C580
090FFB97
2AE33308
9E2FE835
25007680
9B866736
83C1FFD6
147DC702
1CD4E593
645D0633
FF6A6BC3
88D87CB8
D811AD16
A9EC157B
E24183A4
3F3F6F5E
B9F73085
7084E5C7
13BCA545
FA1A754C
903126C2
C4124DCD
BCA2FCE6
FEEFD53C
F4C0AB0A
7892C5AB
576F06B5
8B99BE13
72A1B97C
8FEABDE3
3A2BAA20
2FA04CAA
C7E92C09
9F34D7B6
7ED61A9E
9FD9649A
BDBC5AF1
D1539762
FD45EF7C
7AE19516
CABCC63B
411B6A2A
02AF8127
C4DC32B8
22D4EF21
E26236E4
E2056AD6
C20BE93F
0491F719
750FB3E8
C1384CF5
E7DC3126
FAC7D7B8
50456A80
C38D3280
290C5511
7A867513
1D4B21F2
7C35DA80
AFB771FF
21C0FD28
37796B45
5321653B
8CD281E3
D8461474
57FE4AF9
676E85FF
558B3840
CD0A30F7
79F4E5B2
EBBA62C7
7958F082
8632B9B7
255B9609
91ABB039
24122E00
20149179
D937F09A
C065EF13
FAC169A1
DA7B2FE8
944EA6B5
D41A651F
D44CC470
72A40C7D
3B74B4D6
40F085E1
6989965E
30BC18A7
