841FDCF8
B2FA87F3
C4FC1FE1
FE8BF14F
FC9800F8
CC94FD9E
EBFAD482
D841DE0F
37FFB903
883C05E2
D00342D6
0F41E030
2B7EF834
31007000
03A1B866
0F7607D6
057E0008
0085FE9C
58C7DE02
08C431D2
E801F4F0
D860B793
5FCD2C6F
E0C25801
54A904F9
65DA2C13
8E097C63
678BDEAB
1C80FD1B
359281FB
50FA1FE6
DA301ADD
1EC0B690
E1D7684D
3C9C4003
A73DEA0D
9E0C5037
C9BF06C1
420F9FB2
E8FC13FC
D4DE643E
1A4020D2
746764E7
3D620E08
1C002446
06AB87D9
8A6B14D4
51E1FFF8
5480BC42
F32782F9
1B7E03C5
93BC0C12
6001FE02
4E92132F
DE1D7721
3FFF9FC3
F523DEC3
86A6098F
FF05FED2
BA91FD27
3CA0C94E
7AB02409
5F5F7CE0
8E008118
D9B37F69
F07FBD7B
C887FC15
6E80D002
DFBB91B8
BBB78792
CAF607D6
4A6D3FFC
C3600276
268017F9
8700F20C
947F0028
1808BC19
CB195D02
96FF5BB8
DEBF0578
EEFEF30B
7241FFA5
B801FC03
0BD403B1
86FF0603
2AE9FF5B
8D4807C6
6F00FC86
51016D42
52BED180
3BC0207C
FEFB7F81
26EF4429
1B01DC06
84201590
B22FC82D
C101D3F7
D5BFAEC4
2C7F21F8
CB7007EA
D5807BEF
D41EFEF3
2088FD22
9E001B52
2B3FD847
9FCF1879
34C3FC41
F47FAF76
A180F039
76AFE5FE
1A900FF1
FC7F0CA3
C77097F9
86C207F9
0383FA30
D43FFFF3
DEC40075
D98C7D71
C9278BEE
11BFFF40
42F7C509
54978FF9
690B4014
6D0BFC22
E124E872
97016073
5CBB8036
89C139A1
