4DB0480F
4D94CFC6
BAAE33E6
92E28F64
F4A13539
50D59873
51D75C02
9153486D
6E1A2D97
3B4D7593
43EF13B8
F8933D17
DE426391
8335DCE2
BFF95699
5C059803
4DD515D0
BDE825EB
3CA4E246
60D4817C
4229C2F4
43B60A52
14798A55
2F05DE68
C6E757C8
033CC7D0
40BFC7FB
6E2275DB
E05D90E0
B2B19530
E90CE86A
20C5D032
9F6DB240
31A18967
ED254027
F1232D35
B8F31793
CDACD7C2
5441A209
F4ECD646
A15043DB
BB3572BA
1ECA233D
0DFC81BF
6E62897F
F4519955
0DF997DA
A25848FC
0F04E049
6ED55742
7C023D85
620F213D
24FEA507
069D0852
EF336212
EFDB23FF
E4CD6AB3
E9CB6DCD
405FC033
28974206
B915D2E3
40FD81EE
26C2D58F
080EC6CB
