51A79999
93FFD655
8138E37B
B44B7162
7C0E9614
1B87051B
6A73DD41
F494EF4E
54BB9211
AE07E25D
3B137E06
324906F1
D45E68BD
0D521A56
1257DDD3
58F131FE
6C12163C
DFE36EA3
1F3E346A
143E16AA
14D5FC50
A6B4CBFF
D6ECCD2F
9EF90027
9007E166
760FA71C
171B8F92
DE650C2D
B0A67A3D
33BC36F6
EDDFC1E1
D7F27F76
9D6D27F6
44D968CA
E8CA0027
61377ECA
39D6F15D
B882A8E2
07910301
9F4B16DF
F2ACCCB8
B2DE2D1A
B4701481
8AD4374A
D30B60F4
61914D1C
8D71854D
9FB0F8EA
A1661892
3CF8DF5D
04C0CB54
7FEE7758
FED85424
D4BE9AA5
4A8C95C7
533DFBE3
A099D17F
D7398162
F6DC3A71
FFECE902
B0660082
65993D9F
5FF2CCFB
4BBE3407
08086422
AEF9AC16
0E542C89
42960833
D2E787BE
5AD01159
D24E6B65
B77EEC6F
CF6A2CB7
8B7606FD
62E9A454
6EAB18F3
D2E4E27A
E9D72C83
C4BB93C0
10EDC6AC
A5BF3DAF
D99C3A50
B971DBB3
CE9AF77D
0E777D44
ECDF6C75
52E6E188
8567591A
3F30A69F
60ED2DB3
ED011A29
E9CDD761
551D72F8
C04B1A90
2ED222C4
6542A57A
0AC01984
61DD1D33
E15614AD
2BA674DB
4A1EFF12
779A34C9
3F9BDDFA
F9C1B762
1B027C7E
C06CDBBB
B1E59D76
513A5E0C
0F639400
F493A132
3A539696
F0C83D34
89B9E88C
CDAF6113
3D19AE01
D8C9E807
28DC39BB
607B7F59
79CAD2BB
2FBF984B
01AD5F85
87D46313
633B814A
80C4E2C2
7B1918CC
35004A3E
A1E1576A
EF52CF11
