720F5583
E89D84FC
A72E7C7A
DFAC6E82
455AE348
B4247104
5A67CABE
34C27762
638B4562
2F5EDAD9
F9183047
E1CE0413
6BE07653
13832E18
05732AFE
B689B70A
56E80189
40B18849
51AF98B8
65710965
E15CEF6E
FC2C32B2
5CA956C6
C0998A61
46312948
7F1F9A01
9A259284
3F834B4E
7F8BC6EA
FB4BBD50
F94160E7
8BFA8063
97CFEC47
F17E6E4F
697E0959
68D9A0E5
D8057F33
7AC86373
80106945
443D83ED
0454B804
38309107
6F03E6F3
32CBE59E
1FF6F675
9E927247
B72E5E67
32E14327
0FDBFF3B
D106DB0C
9037FDBC
8B04FF8E
9054198E
EC868489
6683699A
DCAF4EA8
F9A16447
F1DE5E1B
15BC9113
8A36CDCD
18279EDB
00D14B26
B2D0A745
5F1E1E51
B70BCE76
B070630E
9F278750
120928AE
B8309F03
46FD893F
EEA1C4F3
1F92B60E
0411A1EA
170D8AD3
B2431EE7
F3C1443E
6FA184F3
12D30812
D89C9EC6
EBF351E2
813D2103
EF0FA9B3
4CBC82A1
45E98967
BDA6EDF4
35C87382
50CC79A1
E1AEA5C4
6BCA74DA
3CC6FEF0
684A53C7
6BD80EF5
E595EB0C
CC435DCA
06F42968
1E9DB80D
D12B6FC3
6AE14163
D1C8A63A
C305A592
7ECF5C73
17D702D3
0590E95C
177D0391
509D6D3D
C93EAD71
93C83543
F98E7C72
AE6392BA
0F49CC0E
46DB811B
112CB5D4
E0A0AA06
46A900BE
0C2100AC
5EFD1340
F821210D
CCAC2301
F16A8B86
ED700403
4896A200
C2F98071
5F526DCD
FD92B462
42DD9B29
CA3BDCC1
B1EC3B0D
F60B0A05
