7FED6809
D9000189
D2FCBEB0
C117E82A
986FA203
0431F6F6
178AFEF8
7ABFA41B
CC00C819
47E8203F
A3FFFEE3
2B23D9C6
5140105B
32367F02
47133BD4
5CD28543
8087F9F2
725E3812
DBC00918
1BC47F3D
822A0CFC
0FBBE079
7DC3F021
908B29BA
BF99FEE6
0023F02B
D9C33C5C
D2DC6DA1
A52F86ED
0A9EA109
F689621D
6B987451
6C2C9BE4
0430011D
612BC5E6
0807C05B
DA07F6CE
A481EBBE
C7F0A244
ADB1EF09
582FF81F
84F8BFB7
BE3FD819
5CFFFDC5
43FFF74A
5BC86F06
9A8985DD
FF21F83E
CE370077
4CA880A2
0A8109F5
B52BF23A
6FAA8876
0AF83FCF
8000510C
DC100CA2
F9109E6D
D8BDA7B9
9FC1B60F
DD242AA3
B5F904EC
BE0DA7F3
8803C02F
E5FFFF9D
A6BC04EA
52008131
7545B050
679FF83A
FBE92C8D
A99F0BCA
601700AC
5C04003F
BFFDFFA1
7B8F042F
615C7FCA
B412E15A
83FC81B9
A22001C4
50000002
C93FCDB8
AE40B3D3
1A703996
D3D79010
8627EE90
C473FBE5
4F403525
5827FDD6
2147F596
F8006DCD
BC006654
DDF9D23F
6E854030
48B6FFD9
D80D4D47
FE87D018
808C7D8F
EBA097ED
208BF985
04000FEC
A807FC01
5BF14004
FE550035
03AAFFC2
1F6E2C62
340016E7
A40DF85B
4D837DD7
F84077E6
32E5BF17
BC270229
01EDB9C2
8803F8AC
46E1A004
67F27FD4
28C40259
36A38C0E
FA407BF3
AC00E8BA
9C5FDA6A
596803D4
C8309CFC
93F82211
167FE7AA
81F217F1
AA0D9976
96FB59C1
9EE203E4
42FC29DF
