142E2E70
EDD59375
F34CEFEF
CCE2A99A
CBB56BB7
6C6DCBB8
F917B045
6B85D36B
CE858E16
6E046470
B3184747
308EA456
D3252858
15056E02
9AAD5EE4
DB96D903
AC982197
6ECBB29F
20401B17
64510730
1B83E229
B1F81FD9
34B1392E
E6A3BBBE
B2D7D467
DA6F224B
933B9612
E8F06ECE
8A7D38AD
CEAB20FC
FEFEFFA7
1F568DA5
B0F66DFC
E5C8C715
9E43D810
D7D277FE
2EF063A5
D7595748
8C1191C3
7758653F
2F40582A
49712C75
57F5A532
9D10DEA1
415BE508
778847BA
17026D80
3B49BD7D
4073C595
19BA483B
2A15DD39
A5C2284A
2403CD6D
6EC5F24F
48F93773
DB7E4BEC
DE6B2BA7
9A19C84D
F7DC14BB
5F376734
67545ED7
8CA2A68F
6204ADDC
52244EC1
A1872C99
C6BD2AA8
8D216B4C
21544015
AD53F572
579AC247
00BC2F85
E0F5CA43
469CF7CF
509C024C
F78501D5
FB8B3CEA
07ACAE37
FD7F5847
FFE46313
F3FCA900
E6752A87
47C76457
FB8079D5
9EC9114C
B2F69D8B
5EB61D99
ED8DFA23
5C6DF222
7461F655
03FA6F67
DC0E0888
246FDA39
E53A7EF8
A0499155
56262A40
0182820E
DB97F84F
53251003
D3362ABF
20BF479D
1591EFB1
EF6B2255
7A94584D
5175F11D
286196D3
25EB62F6
5B467343
BDE2FEE0
2E969B9F
D1E9551F
37080C46
B353BE78
2647712F
A0B2BE1C
7D0B47E8
3418C506
08DA1F81
481625DF
E6B8C733
89759423
0F7CC141
7A600A4C
04EB9EC2
5209DD05
C95F6DBE
6EA45463
E37FA966
FB5313A6
