C12C25DB
17DBE384
D25D4A00
3BA70C8E
68907063
D05CE708
80379481
F862A9A4
509CCA36
23C92280
F990705F
B832A3A7
CFBC432F
F01322FF
5023F55E
07B78D01
98107A1F
249D7B49
AA5C104C
C2547164
FFDCB6FF
948FAAD6
FF213E6F
F3C7A802
39D790D0
27BEFCC1
5C109646
08B11240
A10BA427
DD07C0FF
376A25C0
61B36554
6B8BA4EB
83AD7EEE
4A84C3E9
77B22E00
01078E1E
67809093
ED404F7F
C81C27F5
7D55A3FF
265EB051
FFD1D3FF
21B56F60
E005A9EB
040928B8
A2B06C00
BDC861DE
CE0FE73F
EF683E07
16590F93
F19D80FF
BDA5A132
21033821
0092DCD3
9CFABE80
B7D9F7DD
07BF1280
6ABFD6EE
0A30591E
FFB6B9FF
F19EA703
DFAE6454
A519801E
156DD21F
FFCC7B94
FDFE75EF
0904017F
46967E8D
84715894
F7FC2B6C
59DFE330
78171041
FFA546F7
E7B499B3
7F0AFA0F
047DA994
35595AC6
9B4211AD
9F484E3F
00F4CE80
D40A361E
F0B0B761
416429AD
01888990
86ABE08E
2E29D6F2
9B149C59
50004C08
FE44E12F
CD641349
85F09822
000A0C00
A047F8F6
829E0C42
FD460053
7EFFBD89
0BFBE680
90E6D829
F4C811F3
73F59B58
1E28EF30
63CB254F
78BF37DE
CF4A9A7B
A80EBDE6
06469462
070CE241
B98C0D2F
9DCDF2FF
7BC2BA31
A4E74574
97510FFF
6C8C5558
1D700440
EFFFE1F8
A1355AC7
7F75865F
FDAD13FF
33F94540
CBD1195B
4B04589D
82A752D9
828DC109
8751C857
112FD300
3DC3C148
02EF0800
