81E02600
FF1270FF
20030803
14DBDD42
0AFEF887
0D207D80
07693400
E8289006
32BD5A3F
A5C88EED
1817D867
0BE6FFF3
7BF79993
F3F79FE5
1B185A00
1927A080
0FB72FC0
0801F400
F392D8F3
C8A6174A
DFB20DFF
2420B002
DD5D8C3F
A83995E6
F30340DD
B44F707D
0084D860
080B6000
1C73B5FC
B2B7D7B8
700D3000
80285995
037477FD
D3747EDF
FDF84FFF
77B2A009
26A15B03
270042AE
5F277C15
E10F40FE
763A5FEF
E10704B7
FF7C6FFF
00DD0B00
32786FFC
726CAFDC
C0D164CE
1CDA6BA4
3DF4F9C3
9FE434FF
30873D65
66BE5DDE
FD2AA247
E15A9604
B05B6044
4954D81B
E3C8055B
E011807A
02C22C01
C80AC81F
E7FC7FFC
10151008
5DEBE081
11BCCFC0
3F215501
BCAF1A5F
47FB68EB
02698184
E0E8F4B3
8689D260
F68321FF
7EAF9013
E9A30FD8
FF4AF00F
5D7D89BA
F9294D7B
667A90F8
C9554199
E0EF61F5
1EED569F
E26332AC
5CCF9D07
E034FC0C
1FC5CF00
C01B7402
000D3209
1284E611
70F3EEC7
4182A000
4CCB7B7F
FC2FDCFF
E080A01B
00054701
702675D6
7DEF5FC1
FFE687FF
2868BEFE
C0002228
7E8B296F
6EA12A49
8F10F3DA
D0FC6047
40A79309
0BB43D10
D20DA315
35E012AB
042E9800
112443E0
E2F31BFF
7779DFAE
0702438F
027DC210
B618377B
3F377D8B
13A26129
7ED1DE03
80C20D36
0EC4B100
9FE79EC4
1F4A4C00
2FD133A5
37EB2144
547B25D8
6E1FCA40
3C220F79
B4B116EF
FEFBCEB4
B89AD1EC
