1A8581BF
C0480BEE
C0590008
A74E401C
F174C3EF
3F31D002
C04C4000
D3F64604
7EA16A8F
B478BFFF
A70C7FFC
7D94FFFF
F7A71235
FF99F90D
209E5008
19D4F82D
5FD7AE00
4DC71227
2CC58980
DE39BAB3
FE48ABFD
C8DA4807
E348D5DF
995DE6F6
4B81CE44
5514A7F8
0AEDB50A
0926A000
8E11FAE2
1785BF83
80CDC000
34362381
DEA7FFF2
7F233E19
7FCF3D77
5A1FB000
B1FA7CFB
B2E24EEC
FBE3C0F7
8B017F20
85B47F20
D0654C3F
FA41E3CC
070170C1
2FEEFF7D
48B27D40
BCF920B0
2067607C
6920F001
F2A21FFD
5E108D9C
0FFA7E19
E882AA77
87470BC1
A3FA1412
018D02EE
BEF2D3ED
00F4A510
7DB76095
0116633A
DFC3FFEB
00190C40
E8542425
0F637C03
FD83867F
AC639BF7
FFD2424F
3415ACEC
0A80DD76
11943281
809D8D02
E0F9AA15
119BDFEB
E0D782FA
7FF2BFEF
FB37D3FB
9C5C51E5
5EE647FD
69919201
F7BF45FF
51440C55
D19AB016
115419A1
7015FE09
82208084
45B32A9F
8C46B000
8C53BC1B
80070009
F8716EBE
409783F4
20ED83F8
01D05000
070B390C
946840EA
FDC77FFE
5B45FF50
01180000
7225A44E
40E7CB58
E8060FFF
382504A6
90027A2B
99D5A484
7A8A8A09
24F536F8
0656A009
89913A01
BF329FC1
ABEBEC8B
589801F8
3F64F40C
68636009
FFC3BFEA
863F4290
AE2AF17D
16CD4242
F9EBC21F
BDBF39CF
C9C6A0EA
FC23CF6F
EF0C26FA
0EC89C43
DF5F0181
8A5C5DA8
00D03FD4
F689FFF3
8AE60BEF
