1E16FE07
E7B77E8C
FE84F51E
03AF01F1
A913B701
3F5DF8F2
4FEDFE73
FA5B903F
75D4BFFD
FF70BC9F
0015760C
03F0DDE0
D1DF47FE
086E8068
1E01D47C
E049FC6F
3240ACF0
FEA7E0FF
FFB201FD
0B000601
8A9C00F2
FD2BD07F
38BB0108
8B982DFD
8054FBA8
3F7C1405
F0FE7F7F
FD40FAFC
F6E2A1FF
FFE180A7
FD1BDA1F
E255780E
C0E425FF
006C42AE
01451165
64297E7B
010B9560
6F23FFC6
FDACA78F
7F034403
1FA90006
E0C417DD
2F258D3B
39FE3783
7CD20019
0023C285
1FEDFFC8
F77B14FC
B813003E
21EAE380
82EDFF86
EC604000
C030047D
01215900
1F4C3FF9
FB78BF9F
349B540F
9787FF03
952E0FF4
FBDFEBFF
60610156
9FD75838
D5CEAEFD
6C490063
7DD7038F
05FE5F80
B11D017F
7F7EC0FD
DBB416AA
5F8E8786
2D93BF04
FE88DF3F
05E69C04
838ED016
301E01E1
018EEFA1
98167829
AFA7DF87
BFB9E7D0
00DF5F80
04AEFFF0
EE9F86FF
FE52807F
BF5BFFFD
F0EAB686
FA0173CE
F9A1F86F
F017047F
FFF4FF7B
09673BE6
097F9000
7EEE9F0F
E05A7F56
D0AF02FF
7807C026
406E5182
4138E7EE
3F99FB01
000ABF81
BF70FC2A
F8A3D17C
80803C3C
E4019CBF
C062020F
AF267FF3
5FB5FC1D
C83FFEFF
85645F97
1B832471
02FF0BD0
E4B8FFCF
800E3F84
FFC40002
00F68404
54397EFD
3E1CD9FD
357E6F01
E1D45FF4
FC3FCBFC
ECC3FDF8
4C10FFF9
7C028207
0CCEE880
1860C0FB
FF7C34FA
098AE3B0
01226FC0
F662789C
