51A79999
142E2E70
CDA0263D
C12C25DB
58031F40
4F27F661
B0BEFC5C
7FED6809
DC0A8947
C05442BE
0A62C7C0
1E16FE07
C813F87A
841FDCF8
A5FCF7BA
CFBFF488
F87E1BA1
81E02600
1A8581BF
98AB1CFF
AB980BA3
D556DAE8
E9F5A403
1BA8080A
116A0000
93FFD655
EDD59375
FD1C4CEE
17DBE384
7FA38010
F9D50013
C450012F
D9000189
4A420651
3FE1F1BF
FF10B7FF
E7B77E8C
3847288F
B2FA87F3
92201B01
01A600C3
78922C01
FF1270FF
C0480BEE
2B1E0141
D2131010
D4609DD7
25128639
465857D1
D0B90000
8138E37B
F34CEFEF
FCE3F432
D25D4A00
1BB7D841
406D5983
9BF6D703
D2FCBEB0
BB8087CC
94FE176F
9FCD0ED1
FE84F51E
C0F3E0FD
C4FC1FE1
C9E9F80B
0F3F8CF0
77244F01
20030803
C0590008
09688002
7BBA00AB
21C40E93
FAB731AC
F65DFDF1
79B70000
B44B7162
CCE2A99A
D5B0EFC7
3BA70C8E
8E7B1DF1
A2FDA46E
1F1A4422
C117E82A
E0302198
013255C0
28B29002
03AF01F1
ED108E0C
FE8BF14F
9DFE0FBD
DFC1ECB4
C862789E
14DBDD42
A74E401C
84FF497B
DFA3D745
FD46E2DA
0F8047BB
8989A1B2
1D1F0000
7C0E9614
CBB56BB7
B3363CBE
68907063
A1B22BF2
57E1B041
06E85102
986FA203
5BEE767F
7F5F2DFF
D4F937FC
A913B701
FF99402F
FC9800F8
BC000F2F
D0031B54
807F3880
0AFEF887
F174C3EF
886C7FF0
0E4FFC59
D3EAC82B
9F9ECC7D
77F605BB
D63B0000
1B87051B
6C6DCBB8
F1DE2C24
D05CE708
8DBB3192
0D749FF3
5903FF3E
0431F6F6
C478E6EF
827FFEBF
31DDFBF7
3F5DF8F2
8196FF01
CC94FD9E
500F005C
95084470
85442540
0D207D80
3F31D002
D8D34B5B
C28C1DD4
15797E4E
26E7E78C
9F49A44A
58CB0000
6A73DD41
F917B045
3D636DF0
80379481
C80E9411
28B0457A
20F1E7F9
178AFEF8
00FFF17A
9FFC6CFF
FFDACFFF
4FEDFE73
0F46C268
EBFAD482
C0CD6549
1C270550
02805640
07693400
C04C4000
50419230
A27AB816
87FB4BF7
1FD5A2B8
F692E71C
A9560000
F494EF4E
6B85D36B
2FA2D0C3
F862A9A4
530E9BC0
076D9FD4
4247FF04
7ABFA41B
3FF481D1
F2885E70
12CF9C02
FA5B903F
E6520F32
D841DE0F
5C3FC0E9
03F002C4
6FC25043
E8289006
D3F64604
BDA3014C
EBD81C98
84D58B83
8FF6B781
FEF97A9C
67F70000
54BB9211
CE858E16
E3980F46
509CCA36
F67A2EFF
D2983FF9
AC0217EB
CC00C819
00008248
0000D850
025D937F
75D4BFFD
3A1FFE60
37FFB903
E7E7429B
3EA106FD
AA9EB0E0
32BD5A3F
7EA16A8F
AA7D975F
CB4CCDE3
FE842385
06068887
C86A5328
68480000
AE07E25D
6E046470
92DF4C94
23C92280
FF36C33F
DEA1FF7C
285FC082
47E8203F
7F003893
E05D1667
4EF22FF8
FF70BC9F
E18A007E
883C05E2
4C081C24
840A0178
00383991
A5C88EED
B478BFFF
D103FFE6
CBDFFF0E
18B7B8ED
ACB44041
54E4C961
20740000
3B137E06
B3184747
E13BA411
F990705F
D146C4B4
039572FC
7855FFF4
A3FFFEE3
DFF77FF9
E0CBD1BF
F66C2F58
0015760C
1B340059
D00342D6
3E007C58
0187C7C8
007DE0E2
1817D867
A70C7FFC
625F3EDF
CBE3751F
9FFC8627
77FEF588
DADA456C
44640000
324906F1
308EA456
401436B2
B832A3A7
0AE6A6FF
631B7FFF
09C09BA7
2B23D9C6
CD37FF02
D28FC070
623D80DE
03F0DDE0
16003C00
0F41E030
204C011E
E0006E59
C07BFFFC
0BE6FFF3
7D94FFFF
B191FFFC
903FFFF2
103FE8D4
A062C093
984DE6D6
921E0000
D45E68BD
D3252858
ED804E34
CFBC432F
DFFA437F
EEFE8107
A290005C
5140105B
A20051E0
00200848
2A0707DD
D1DF47FE
4841FFDB
2B7EF834
E79F883F
0A79A879
8EEA436F
7BF79993
F7A71235
2ABE257C
7F5E0E91
C940254B
8D803F0D
6223B732
52C90000
0D521A56
15056E02
525CFACF
F01322FF
90327EFE
269C97CF
98D86CF4
32367F02
EDBFBAB7
03F78060
71578007
086E8068
02580F80
31007000
504F0119
A7E0121A
5ED8DDEF
F3F79FE5
FF99F90D
F74DB4FD
E51D6F45
4E1F1897
F6261AF3
BA471B91
B4690000
1257DDD3
9AAD5EE4
67D9DFFA
5023F55E
7AA8503C
02AB196B
C1D4FFDC
47133BD4
7CF4F3F7
87ADB77C
7FC7ABC3
1E01D47C
06FB4FFE
03A1B866
D002D8BE
00118100
00887D54
1B185A00
209E5008
485E0401
A7F42953
75D5E080
BFFF514F
33E1E11F
86C30000
58F131FE
DB96D903
4DD16ADB
07B78D01
36D07608
3BB3B3E0
9B051E06
5CD28543
60562551
01983A01
1ECECF3F
E049FC6F
81990BFD
0F7607D6
0B40FC08
800A4605
05AA3E88
1927A080
19D4F82D
0C684243
7B8E0724
FBE80E16
5FF37F5E
F7D2B534
EBE40000
6C12163C
AC982197
88130752
98107A1F
050919E5
06EA0FFA
5E86FF9A
8087F9F2
493FF236
2BA49085
1F82F26E
3240ACF0
67BFE810
057E0008
D5E80D15
FE04945F
405E43FC
0FB72FC0
5FD7AE00
A06BD0FA
E90E82BA
516C9A2D
A142989B
8DDF9758
09540000
DFE36EA3
6ECBB29F
4EE8BA55
249D7B49
371076E8
87428BCA
62B242E7
725E3812
43FF43AD
EB7C2B34
BFD540C7
FEA7E0FF
EE0E0FF3
0085FE9C
386FE1EE
87FA03F4
2A085640
0801F400
4DC71227
2E141550
44974AFE
A011B69D
766B5BFB
607EB892
AEFD0000
1F3E346A
20401B17
B55266DE
AA5C104C
1971DBFE
4C5BB261
2259DF88
DBC00918
7E6D639D
B87C5915
2FE30DC3
FFB201FD
D86A3EF6
58C7DE02
56BDF20A
7FFE0CAF
FF53E83F
F392D8F3
2CC58980
F4A19726
988581D9
84C03D39
A2AC89D6
5DDC37F0
B5E10000
143E16AA
64510730
04239735
C2547164
864677EC
434FE037
A6DC01E9
1BC47F3D
5DFFF26C
0FFED100
ED96E828
0B000601
4690EA9D
08C431D2
896FDDA3
BA7379EE
06455AA8
C8A6174A
DE39BAB3
F0A1FDFD
7A7BFEC0
FF56000C
480027AC
8A1153E9
2A670000
14D5FC50
1B83E229
89F81B18
FFDCB6FF
FC89BFDF
D8F5E5F9
481BFB8D
822A0CFC
98E0EEC8
0201EF80
20086806
8A9C00F2
23800781
E801F4F0
B87F3725
C3E170D0
BD7709EF
DFB20DFF
FE48ABFD
812BCE76
30ED83CF
78EFD0F8
17E80151
3DBF211A
53260000
A6B4CBFF
B1F81FD9
797A678D
948FAAD6
8C7ABAA8
FCE27A82
EDB43801
0FBBE079
C0FD007C
CFD01F05
3F47C903
FD2BD07F
C39C87FA
D860B793
A89FE01D
C0F00180
03027940
2420B002
C8DA4807
0604A16F
7BDC0D5A
5F44352E
FDE639B2
FD2979D4
CFF90000
D6ECCD2F
34B1392E
1E9701FD
FF213E6F
FCC556FF
130DEFE4
ACF9FC89
7DC3F021
003FC530
01FCBE80
1E4D4009
38BB0108
32E87245
5FCD2C6F
F03533B2
02270454
9BB77F91
DD5D8C3F
E348D5DF
438E7BD7
AD7F811D
7B8D2CE6
EDC9ED9E
8833C2CE
EB780000
9EF90027
E6A3BBBE
65D653BA
F3C7A802
FB8783CD
F7B01533
890E0278
908B29BA
31C91C30
FC05FBB7
F83ED5FF
8B982DFD
28580E80
E0C25801
B84F00A8
1BE03663
D61ABFF6
A83995E6
995DE6F6
90265F78
5625FE83
C96B5D15
246F314F
2DFBF71C
A0DB0000
9007E166
B2D7D467
37C06978
39D790D0
5728F40A
2434103D
CEDF8470
BF99FEE6
44A1F939
1F4F43A3
FE1A703F
8054FBA8
0194B926
54A904F9
60D07F24
5823D1C9
012023C8
F30340DD
4B81CE44
11D96FC1
CC7B7E04
03FF8E36
FF5FCD08
04B14AEC
29430000
760FA71C
DA6F224B
A1FFC9C3
27BEFCC1
9ADE00E4
476A03C0
1DA47F02
0023F02B
2034014A
A72635DB
03FD7AE8
3F7C1405
FCB6607F
65DA2C13
7373204E
7F896C70
BC008B47
B44F707D
5514A7F8
ABD67EA2
436B3845
78349FED
72A1EF3E
2F967BBB
DB210000
171B8F92
933B9612
E97B9DAB
5C109646
251ED8F8
44F4BF40
7B885401
D9C33C5C
D47F43C1
03FC55CC
7FE67B67
F0FE7F7F
4EAC8FD2
8E097C63
F703505A
C0284322
0010DBE0
0084D860
0AEDB50A
B7365CD7
82E1250F
BFE407A8
7FF5EF13
5FFDBA58
CFC20000
DE650C2D
E8F06ECE
CD1ED60A
08B11240
1B0A8841
5EE0A4EF
A36BFEC9
D2DC6DA1
FFB2FFEE
E01F793E
3FFD3F52
FD40FAFC
D6B6A764
678BDEAB
582B8852
C87D0230
54A07682
080B6000
0926A000
28008114
F5678C8C
A196F0B1
FFFF7473
FFD321A6
E9AB0000
B0A67A3D
8A7D38AD
712B129F
A10BA427
F9C3EBCA
FB5C81AC
1736152F
A52F86ED
18C03EC7
DC5F9F29
ECFE713F
F6E2A1FF
F7301F40
1C80FD1B
DE084E30
E00FA576
C12B33F8
1C73B5FC
8E11FAE2
AF8ABC8C
C3F7F0B4
C0FFAC66
2C94C849
51F8B5A5
932D0000
33BC36F6
CEAB20FC
BF0A2123
DD07C0FF
E82399D7
0247E188
10CF9413
0A9EA109
7C7B009E
3FEE998A
FFF9B000
FFE180A7
F8A8371B
359281FB
9B322FD9
CC87D02E
7877E2FD
B2B7D7B8
1785BF83
D620BCE0
1E6ED486
86A38840
A2227E15
232D0222
44DE0000
EDDFC1E1
FEFEFFA7
E43E5D6B
376A25C0
27B9A806
853FE11A
AFD70A57
F689621D
90D98725
3CF413B7
9F014DF1
FD1BDA1F
A7A4A3FC
50FA1FE6
9AB3FE35
1CBEDC74
1F20CE00
700D3000
80CDC000
45B10200
0DB20039
E7D00347
1E75ABAF
D2F7FDAA
FEE60000
D7F27F76
1F568DA5
CD63AA92
61B36554
19B8C046
EFBD282F
145304FA
6B987451
FB1E507F
F1920A3C
3CCF19E3
E255780E
0B7F4116
DA301ADD
FF073515
E07A658C
1C01D4E1
80285995
34362381
F91CCFE9
8179C34F
CE29E37C
95D244F7
8743ECEF
7A9D0000
9D6D27F6
B0F66DFC
B07F80BC
6B8BA4EB
CE137977
F6CF5D4B
7BBCB69A
6C2C9BE4
DF400CBB
FE00430B
EA069B7F
C0E425FF
01881FC4
1EC0B690
F40201DC
80068B46
C11621BC
037477FD
DEA7FFF2
0925B655
CF71EB5E
63DBB5EF
0F52A871
F54EEB6E
A52D0000
44D968CA
E5C8C715
0790ACDD
83AD7EEE
6D467916
A7710C31
653C2188
0430011D
A1E13479
BC00A5EB
008DF2D5
006C42AE
8B81DD00
E1D7684D
899F8485
2B196B9F
ED1DF979
D3747EDF
7F233E19
F1096C7F
EE2809FE
24451C87
9E4ADA95
12A28F9E
AE2A0000
E8CA0027
9E43D810
C0074088
4A84C3E9
D9F970EF
EE220BBE
BDC847DC
612BC5E6
14FCBCD9
275BEA44
61097D27
01451165
043CF601
3C9C4003
82560F63
7800F667
903FFEBF
FDF84FFF
7FCF3D77
D529D1FF
20E3F171
001265E1
0482E300
04F981A4
0A680000
61377ECA
D7D277FE
BFD7C23D
77B22E00
3F7B160C
0D6A01E7
0400FE20
0807C05B
01F10D6A
72006C7E
81062FA5
64297E7B
F69BFFAC
A73DEA0D
5FBE805E
1F818602
A9822EE0
77B2A009
5A1FB000
DFD641BF
1D8C81C7
E109EFFA
F2FBA915
A54EDC3F
6E740000
39D6F15D
2EF063A5
ACB11C43
01078E1E
3FAA6113
B1FE85FE
6C3EF97A
DA07F6CE
8492ADD3
0741C2E5
F41DF8AF
010B9560
1398E604
9E0C5037
08061F8B
C0211EF5
0034F460
26A15B03
B1FA7CFB
2BF77A69
EB7FFB13
F2730199
6DD863BC
D8B383AE
E3880000
B882A8E2
D7595748
03B87BF8
67809093
2E306B30
64F92AED
7C9DB25E
A481EBBE
1A7AA9ED
FAAD58BF
CF7E9FFC
6F23FFC6
2F2FE0DE
C9BF06C1
F000E009
700FC843
81C409B0
270042AE
B2E24EEC
98C16821
890E98EA
0BF89A18
8EF886DE
0E0865A4
54960000
07910301
8C1191C3
A5B59097
ED404F7F
F00D8FFF
146FF5C8
FAFF0406
C7F0A244
6F02856F
60462D6F
0F4409F0
FDACA78F
DF48B9FA
420F9FB2
34F9FFEA
47BFFE70
98FD15C7
5F277C15
FBE3C0F7
E8581DB8
A0810370
2334B410
7E56E606
99E4EA01
918C0000
9F4B16DF
7758653F
D146C580
C81C27F5
FB3DF1FA
81B7A0B6
33AD5F22
ADB1EF09
42BF0186
D7F2A79C
17F41D01
7F034403
E90E003E
E8FC13FC
87E17DAD
FE2A358F
FC5E0227
E10F40FE
8B017F20
69364C50
5CC5803B
19CC4801
50D6DA1B
AFA46FF3
247D0000
F2ACCCB8
2F40582A
090FFB97
7D55A3FF
7B34C37B
1A2527FD
95537FE0
582FF81F
A47EE226
03808900
22C07882
1FA90006
1CA10C0E
D4DE643E
2C023CB4
DEF02FB6
6F8BFBBE
763A5FEF
85B47F20
39D5FD00
4FDF109A
A35502DC
28810098
DEC745E9
647A0000
B2DE2D1A
49712C75
2AE33308
265EB051
26A066E3
5CCEFFFD
F76B7733
84F8BFB7
5747FD81
A7F17F0F
FE615FFF
E0C417DD
150C204A
1A4020D2
64401514
44000040
40081606
E10704B7
D0654C3F
02429FF0
E22BFEA8
7DDF7954
1E7B618A
315CC18C
F67E0000
B4701481
57F5A532
9E2FE835
FFD1D3FF
568F4FCA
09C66FF8
4A67FD40
BE3FD819
D8700274
20220B00
01CD8800
2F258D3B
FFFD6787
746764E7
C31603C4
E411FEAF
E1F3CD7F
FF7C6FFF
FA41E3CC
8B35F6D4
B944125A
5447ECE3
82C1C1AF
3380680A
698B0000
8AD4374A
9D10DEA1
25007680
21B56F60
40010DC4
08D4FFFA
6CEFFF66
5CFFFDC5
F7D7FA2C
B87EA87F
87DAA9FC
39FE3783
10CB58E9
3D620E08
3041F380
640E3CA6
206646E0
00DD0B00
070170C1
A4B2FE5C
C5DFFB8A
EBBFF56B
9FFF23AF
02E88856
20990000
D30B60F4
415BE508
9B866736
E005A9EB
8560E5FF
00B3FFF9
C88FFFD8
43FFF74A
7FE3F9F7
10FEFACA
07E62720
7CD20019
A6680A40
1C002446
CE14114C
629D5E66
20DF91FB
32786FFC
2FEEFF7D
EB47DFBF
2141FF8E
605FDA2D
5E5EC2D0
4EDA7266
F9180000
61914D1C
778847BA
83C1FFD6
040928B8
8D317592
422EE2D8
365F84D6
5BC86F06
B97CF4BB
E2DBFCA9
55083B18
0023C285
007DD049
06AB87D9
6E01EF40
F01FB747
03FF5DF8
726CAFDC
48B27D40
DF22C80D
7867E28B
EACEC90F
5E70820F
0FD5A8C8
E4120000
8D71854D
17026D80
147DC702
A2B06C00
5DEA7380
4B82F006
5EA71818
9A8985DD
03F01FF3
7F01B6FF
E0F27FFD
1FEDFFC8
EB37F062
8A6B14D4
68107E01
07006B02
C09A3017
C0D164CE
BCF920B0
4F915F12
02823870
0BAF5609
D2E420C9
09B26963
F95A0000
9FB0F8EA
3B49BD7D
1CD4E593
BDC861DE
7FAD7C4C
57BD61ED
47C01FE0
FF21F83E
B03F41DC
03FF9A01
3E12210F
F77B14FC
CFDD05BE
51E1FFF8
E8C31EC5
A8017210
00990140
1CDA6BA4
2067607C
8D76D420
06A4D304
4F3F8B98
9F744649
CE9D2512
B0FC0000
A1661892
4073C595
645D0633
CE0FE73F
FD8C7FD9
035CAEEC
E2C9F036
CE370077
F2F00052
02942400
5B802803
B813003E
0D5003FC
5480BC42
E104ED30
E09A2C1F
5449E114
3DF4F9C3
6920F001
2B9FF006
F8D100CC
777042A0
FE4FD070
BFF7DC70
67DB0000
3CF8DF5D
19BA483B
FF6A6BC3
EF683E07
FF7E8A17
B8221FFE
9E097F2D
4CA880A2
1FC008A2
F8000E5F
C01ED3E8
21EAE380
3A0A7882
F32782F9
D2C81773
A702EB42
40FEBB7B
9FE434FF
F2A21FFD
4EC0DFB2
766E22AE
89BF80A7
B3A775EB
EDA93D7B
4AEF0000
04C0CB54
2A15DD39
88D87CB8
16590F93
1EEF0500
B9E49007
D32A032B
0A8109F5
53C83F2B
FF86DDFF
E849A7FE
82EDFF86
491720CF
1B7E03C5
1AC0E823
181131D4
00DA37A0
30873D65
5E108D9C
41E0B54C
2FC712A5
AB40532C
72C7A78A
42720363
8AC00000
7FEE7758
A5C2284A
D811AD16
F19D80FF
D629AF7F
614B9FF6
1009FFE1
B52BF23A
423F8590
00FF1F00
0EBA4820
EC604000
0B69C0C0
93BC0C12
CFC0A402
7CD8B75F
B133EE7D
66BE5DDE
0FFA7E19
F1F7F95C
F8B71CAC
CE1003D4
F655FB9C
06C4A6ED
7FF60000
FED85424
2403CD6D
A9EC157B
BDA5A132
76512E32
469B7724
C0ACC016
6FAA8876
A69C0978
668097C4
FD0D806F
C030047D
418007C8
6001FE02
A00FF3D5
01F01F64
0FB1C5A1
FD2AA247
E882AA77
678C01E8
158013B4
0CD3C88F
5B9859D1
DD79BC98
43FB0000
D4BE9AA5
6EC5F24F
E24183A4
21033821
F3AE039E
F1289B5E
FFCFEEF7
0AF83FCF
6FCE394C
F9E5D568
845C87F0
01215900
0C1BC43C
4E92132F
1788B780
F49C99F7
0FE088F8
E15A9604
87470BC1
5423DEAE
7E2012E0
8FABBD20
D10C551E
57F04ED3
D37B0000
4A8C95C7
48F93773
3F3F6F5E
0092DCD3
153C017D
9BF8497A
7020354E
8000510C
DE62B4C1
E41C1A5F
80F3DB7C
1F4C3FF9
FF6FFFF2
DE1D7721
BDFFE2DC
3FF0AB31
FE0AC62D
B05B6044
A3FA1412
3BE0F7D2
3E01FB45
F208B40A
10115334
122CCD91
91D50000
533DFBE3
DB7E4BEC
B9F73085
9CFABE80
9FF69816
F2274A66
1E7E6818
DC100CA2
2C012944
20007D2E
8042EBF8
FB78BF9F
EAABF9F3
3FFF9FC3
4FFFF774
3F3F3284
7FDD9642
4954D81B
018D02EE
4EDC25B3
03800F45
F8607E7B
1191A2EE
FAE34296
CBD70000
A099D17F
DE6B2BA7
7084E5C7
B7D9F7DD
CE535AA0
6ADFA70D
D7FE87DD
F9109E6D
51F8A3D4
D5E9FE60
BBCD9E52
349B540F
B251318C
F523DEC3
1F73ECFE
1DB11FFC
2DEBC4C6
E3C8055B
BEF2D3ED
E6FB9BA3
5CE2F9DB
7FCDDA69
727F49AC
57B347E7
5B490000
D7398162
9A19C84D
13BCA545
07BF1280
227A60F0
90A17C47
6465CFFB
D8BDA7B9
7FFFF920
B5FFB7BF
C078EFE4
9787FF03
F977D062
86A6098F
76F8CA3A
57680944
B4005203
E011807A
00F4A510
25081F81
C28EF9C4
0E4FE2A7
DFB75B65
12FAE312
7D750000
F6DC3A71
F7DC14BB
FA1A754C
6ABFD6EE
70E4FEDD
01AFE5AA
616884E3
9FC1B60F
B00CDA3C
01F37901
FC297AFF
952E0FF4
0D15DEE7
FF05FED2
72BFFFAC
B01FFBD6
008A3340
02C22C01
7DB76095
D11D8DF0
518BBF7B
04F4A41C
FAD10DB0
51D2F03E
F53D0000
FFECE902
5F376734
903126C2
0A30591E
45EED62B
C3F2A4D5
B694A4C9
DD242AA3
958CC3E0
90F42D77
9FC253CF
FBDFEBFF
BF3117E5
BA91FD27
503F90B0
0FE80388
17002D02
C80AC81F
0116633A
6D5EE345
FB7DF12F
F752F803
1412867F
2B36F6FF
BF5F0000
B0660082
67545ED7
C4124DCD
FFB6B9FF
A1FAFFBF
F41FEFFE
FAA379A9
B5F904EC
A8401F34
00D04100
0B00103D
60610156
831813F4
3CA0C94E
DC009FD3
E00FF8BF
87FDF7F7
E7FC7FFC
DFC3FFEB
F85FD1FF
E5A30367
CBA65797
CF7BC7B6
B9172A4C
92ED0000
65993D9F
8CA2A68F
BCA2FCE6
F19EA703
3AFCA002
9BCA0640
36F3C730
BE0DA7F3
F5FEE75E
1EB98DF5
FFEEDF46
9FD75838
F69E0002
7AB02409
D984713B
CBB00B70
7F001F05
10151008
00190C40
5C632CC9
49FD6884
F5E398F7
4DDF7AA7
3F4F2F48
771C0000
5FF2CCFB
6204ADDC
FEEFD53C
DFAE6454
97883800
45E31945
38827C03
8803C02F
00780132
8100250B
7B8BEFC7
D5CEAEFD
F8215FF6
5F5F7CE0
79F10098
BEBB1DF0
FA5EAF13
5DEBE081
E8542425
015A20DC
60880079
A56027DE
4F2DDF6F
3A7FD057
ACE60000
4BBE3407
52244EC1
F4C0AB0A
A519801E
708A6542
8E86B6EF
5EF9FBCE
E5FFFF9D
D3EBFC8B
3FE7A3C9
FDBB1803
6C490063
42C80E44
8E008118
B848000D
7C87E027
40EF40FC
11BCCFC0
0F637C03
C5ABF061
E99F400C
CCFF11D4
3FFBE0CC
6D9F3541
DA000000
08086422
A1872C99
7892C5AB
156DD21F
A9A1DFFC
A50D7FDD
203FDE0B
A6BC04EA
EF808132
680012AC
028881BC
7DD7038F
4ED0FFFC
D9B37F69
33EF7C57
8F17B268
50FDA8CA
3F215501
FD83867F
ECA09FD9
D09DFE16
5B59B685
6C44B99D
4C71F900
4C140000
AEF9AC16
C6BD2AA8
576F06B5
FFCC7B94
FF9A7D4A
4D16C022
B288040C
52008131
400023FA
04206A24
80390528
05FE5F80
B80FFDDB
F07FBD7B
93FB6F7D
CDFE5797
7BF6F634
BCAF1A5F
AC639BF7
DE558015
9FA80012
98901297
F04B21EF
0B0B9587
EE910000
0E542C89
8D216B4C
8B99BE13
FDFE75EF
9309FDF9
4561FA70
32BCB805
7545B050
2031807B
23D40BE0
FFA60A23
B11D017F
1F500FC5
C887FC15
10FEA141
57E15318
F8BE2146
47FB68EB
FFD2424F
0CA63D25
F51FD71F
EF8A82D9
6443217A
090F987D
05DB0000
42960833
21544015
72A1B97C
0904017F
98E18DF2
0054BFF0
43B7FFC3
679FF83A
CF7C2A07
87F04EA8
F5FA2E2F
7F7EC0FD
E6921FB2
6E80D002
9C9C038B
CFC065F8
381D8206
02698184
3415ACEC
15B9760A
F122DED7
DBFF8DC8
14FFCD6C
47DEA0DC
9B350000
D2E787BE
AD53F572
8FEABDE3
46967E8D
6157A9FE
EB68A92F
632FF531
FBE92C8D
7B7DCE93
02E475FB
C98EFEB6
DBB416AA
6FD0161A
DFBB91B8
2679A6EF
DE567CE4
3BC68E7C
E0E8F4B3
0A80DD76
DD3D98E4
A6D8763B
5DF86F45
5F1FEF77
96A776F1
6EF90000
5AD01159
579AC247
3A2BAA20
84715894
4D42B322
08C90F52
0A03FA18
A99F0BCA
2FF17B2D
BE1F8FFF
C299A77C
5F8E8786
2202B0AC
BBB78792
98C1870B
6B109799
F02CA03F
8689D260
11943281
94F03C20
2B82C390
087D0554
708D7DC9
BFFC3D84
91A60000
D24E6B65
00BC2F85
2FA04CAA
F7FC2B6C
BFDCA409
DDCA1241
B6C0C549
601700AC
0FF003FC
38CA584D
0D657B40
2D93BF04
78ABD0BE
CAF607D6
97F1FFF5
F2DB2CDB
DFDC9211
F68321FF
809D8D02
A24AA002
01500081
03802A18
E62FBEAB
8D9C3DA3
B6B90000
B77EEC6F
E0F5CA43
C7E92C09
59DFE330
0F6E5502
476CC004
A1402000
5C04003F
000005CB
10106E53
8C079BF8
FE88DF3F
EC67F7FE
4A6D3FFC
EB2BFC8B
E8FFF2C1
5FC98E00
7EAF9013
E0F9AA15
1D600008
77E0033B
2FF3FB06
383BD99E
320E74CF
AC2F0000
CF6A2CB7
469CF7CF
9F34D7B6
78171041
1D6F132F
6A4D581E
697F8356
BFFDFFA1
9FBFF0BE
7C7D9393
86D587C0
05E69C04
1CAA000A
C3600276
9D409229
643D5E0F
DA08C79F
E9A30FD8
119BDFEB
8659F25B
FEBEFA06
6F9A40FC
AFF4543B
7F48A5FE
87780000
8B7606FD
509C024C
7ED61A9E
FFA546F7
08FFFE80
062D7400
73BCBC0B
7B8F042F
61F00475
3F0CBDFB
E0E1254F
838ED016
FB73C17E
268017F9
9C82FCB1
4800D6D0
03F8A180
FF4AF00F
E0D782FA
11DE0300
37420846
CFE80FA9
7BCC9F65
FFFF5C93
A4C50000
62E9A454
F78501D5
9FD9649A
E7B499B3
F95C68ED
F152E8FF
6F6328FD
615C7FCA
BF12DE53
A2015EE2
701EC80F
301E01E1
02881F00
8700F20C
CA5E22F5
82F2AD40
BFDFEF7F
5D7D89BA
7FF2BFEF
BF17DEBF
21F0DDFA
A4AF6196
113A1EC2
8050BCDE
05240000
6EAB18F3
FB8B3CEA
BDBC5AF1
7F0AFA0F
E08852FE
EBB4187F
70402615
B412E15A
01B62E16
1FC4224E
F89AF74F
018EEFA1
1EC64005
947F0028
B9B00503
C7012DED
61268F2F
F9294D7B
FB37D3FB
CBC697E1
D7D43E0E
1A0A09FA
1C40A36C
C0E1A668
4AEE0000
D2E4E27A
07ACAE37
D1539762
047DA994
21D80CC0
77493A4F
931BE01C
83FC81B9
3FD00947
FE07CAFF
F00B5FC7
98167829
1F9D9688
1808BC19
DC4081CC
926AEB04
712BAE11
667A90F8
9C5C51E5
F5A1F356
474A19FD
E401DCC0
91B730C2
D9EB0E8A
61D90000
E9D72C83
FD7F5847
FD45EF7C
35595AC6
495057DF
EDF6F503
FE430A21
A22001C4
2E00385B
E1016A7D
07AD3BF0
AFA7DF87
1B6FFFF2
CB195D02
9BDFE037
3DEA3545
DDC85980
C9554199
5EE647FD
ED10ACFE
F1804FFE
6C11BD85
0D31261B
080B5B25
F4480000
C4BB93C0
FFE46313
7AE19516
9B4211AD
B40D15F5
06FA2680
10420002
50000002
800B71C4
83FF8D60
7FF175FE
BFB9E7D0
790BFA0B
96FF5BB8
CF43B64C
B385242F
F399876B
E0EF61F5
69919201
731A0BF6
099C5CD8
FC6881D8
0003501F
209E7074
40B70000
10EDC6AC
F3FCA900
CABCC63B
9F484E3F
FA8B7ACF
7F27EFB3
E87DF5B6
C93FCDB8
C2F02C20
BC01CE07
E006CA7C
00DF5F80
1CF2E817
DEBF0578
40401FF5
A0037BF9
007FD7D8
1EED569F
F7BF45FF
F53CBFFC
33E7BDA4
B4FFD91A
49846F08
E53E5092
A7B10000
A5BF3DAF
E6752A87
411B6A2A
00F4CE80
4B9FE003
FDECC83F
AA8E07FC
AE40B3D3
380C3F0F
F000EE9F
90078BFC
04AEFFF0
2753FE9C
EEFEF30B
218E029D
10F443EA
4A881F4A
E26332AC
51440C55
DAD964DF
EA2CA9CF
AF8DFFFF
E022B325
C36F05E9
4A500000
D99C3A50
47C76457
02AF8127
D40A361E
011F3CA0
2256DC08
C53E0062
1A703996
443FE03D
2FFFD692
FFD5985F
EE9F86FF
543C09FE
7241FFA5
8DCBF6D2
B87CF4B3
87F271D0
5CCF9D07
D19AB016
59741531
F7B0022D
1B109A84
0CBA1CF8
4E961647
10040000
B971DBB3
FB8079D5
C4DC32B8
F0B0B761
78D1C422
39885A38
2B9ED5CB
D3D79010
7F7F04FB
F8FC24FD
3FF67FC3
FE52807F
ADBC0FE2
B801FC03
C03F802A
07F403F0
7E207002
E034FC0C
115419A1
1AE123FB
1E3BDFF5
E26D33FD
6BFE947B
EFFEDDD6
AB240000
CE9AF77D
9EC9114C
22D4EF21
416429AD
494860D3
92284FFF
2980FBA2
8627EE90
DD615DAB
761F5E6F
F1FB07FF
BF5BFFFD
F2BD3668
0BD403B1
68C08820
8005D269
002A547C
1FC5CF00
7015FE09
0C3156C1
919FFB3B
7FBE395B
4BDEE005
6C9948C2
69880000
0E777D44
B2F69D8B
E26236E4
01888990
8AC0952C
F50933E7
E33B5E7A
C473FBE5
3B0FDD2F
F8FBCF3F
CF0827FC
F0EAB686
097FE4CA
86FF0603
4321C862
207A23D1
0599FDC0
C01B7402
82208084
62A36E8D
7E96FBF9
76FD382D
A9D1AE87
7B5B26BC
E2880000
ECDF6C75
5EB61D99
E2056AD6
86ABE08E
38964A27
B4FED04B
CEDE01F0
4F403525
F707F9BF
F8D48B9E
8EB3DCF8
FA0173CE
EEFF9EFC
2AE9FF5B
11CFD076
3CFC55FD
D6487CD0
000D3209
45B32A9F
E698ADBD
A507D725
A046CB7B
CA30C4AF
7550B7F2
B3CF0000
52E6E188
ED8DFA23
C20BE93F
2E29D6F2
51445440
41DE7FEC
694DFFC2
5827FDD6
A8FEA03E
4BF68C62
77D31E57
F9A1F86F
E7E7C173
8D4807C6
4C407E6E
5701C9BB
00288EBC
1284E611
8C46B000
86836418
86EC0E38
ABFB1467
0FFECD4B
B6FDAD31
F4150000
8567591A
5C6DF222
0491F719
9B149C59
451783B5
0DC2EE5F
20B6FCB9
2147F596
0B780EBC
478DCEE9
38068D27
F017047F
05D92680
6F00FC86
3C87D23F
2074695C
03BBD86C
70F3EEC7
8C53BC1B
70D682D7
4FE20705
C76A6638
1F8FA82E
1CD7D520
49DA0000
3F30A69F
7461F655
750FB3E8
50004C08
079BE2C1
97018017
7E0C103F
F8006DCD
F380DDFF
F50F447F
FFB04FFB
FFF4FF7B
F97FC3BA
51016D42
5B8BF061
C7F809E1
7F201C08
4182A000
80070009
2BF10EE8
C48203B9
D430BFC7
A619E95B
A41CA34A
2AC70000
60ED2DB3
03FA6F67
C1384CF5
FE44E12F
FDBDB0FE
5627134B
FA20403F
BC006654
20029B80
00FA92A8
58DC20FF
09673BE6
51C74FFF
52BED180
86E21FA1
E20F8625
84ED6378
4CCB7B7F
F8716EBE
0757FFF0
6FC7FFD3
F8438611
50001914
00355F70
F7E50000
ED011A29
DC0E0888
E7DC3126
CD641349
76459200
F9149807
07ED0001
DDF9D23F
FDF8705F
FF88BABD
7AF95A01
097F9000
B4DD0003
3BC0207C
C20F5FC8
42F9D2B1
5FC6CFCF
FC2FDCFF
409783F4
1EC8C5E1
8A915857
3E018B47
74094B51
FDDDFB8F
F7CF0000
E9CDD761
246FDA39
FAC7D7B8
85F09822
A4D33200
BAB7088A
3420A023
6E854030
C03C07D7
A3501E56
054BFE51
7EEE9F0F
F13773FF
FEFB7F81
C1E7F52E
A776AEA0
FB843305
E080A01B
20ED83F8
16D52E45
29C506BB
49204783
B44150FD
9AA7961F
CE6B0000
551D72F8
E53A7EF8
50456A80
000A0C00
243BC091
7DA821FF
D09CBFF5
48B6FFD9
D2EFFD7A
58FEB53B
3D8EEBE9
E05A7F56
029DFCF8
26EF4429
53C3E05A
38FC439E
61126650
00054701
01D05000
541D6401
7C2CB2EC
87F2BABB
1B7D0FB3
CB73F934
8F920000
C04B1A90
A0499155
C38D3280
A047F8F6
5050794C
5F1AEF0F
DF7F8CD7
D80D4D47
C3BE861C
7BE4DC10
3E0130B7
D0AF02FF
06202F70
1B01DC06
881CC546
E1DC14EA
0F86D780
702675D6
070B390C
6D938513
34B26DC1
A327CBE5
24D8A4E4
9A7EB624
7FCE0000
2ED222C4
56262A40
290C5511
829E0C42
9070B6A7
590E53B4
3875EDA0
FE87D018
C87F82E6
07FDDD70
77FB6403
7807C026
73918017
84201590
CFA43E89
9807D738
635EC2D6
7DEF5FC1
946840EA
9D8AE022
6CFA8267
45C502E2
7FFEA6F4
40643F0A
C0100000
6542A57A
0182820E
7A867513
FD460053
F849BFFF
C227757E
06F80696
808C7D8F
C70A60B4
B0564A30
891A3104
406E5182
9243CAA1
B22FC82D
46326E5B
F72BB8CF
3FFF2EFF
FFE687FF
FDC77FFE
76A3656E
A2B7EE8E
9068B822
80001188
4A091048
925A0000
0AC01984
DB97F84F
1D4B21F2
7EFFBD89
7735CBAE
179D2AFD
3568FE2D
EBA097ED
89B09FCC
65CDDF58
D20FAD3F
4138E7EE
07243D41
C101D3F7
0800BAC3
801667EC
01779BF8
2868BEFE
5B45FF50
422E7D09
63FB9D1E
97F98CE6
4F45F25D
AF0356FB
0CFB0000
61DD1D33
53251003
7C35DA80
0BFBE680
0F890020
004C0045
7A1AFC1A
208BF985
2C0FD9C7
623B91FF
007B77B8
3F99FB01
7CA7FDC7
D5BFAEC4
77FDCB00
BFE10F07
FF815C1D
C0002228
01180000
3BC28601
7E6DB054
AC0528CF
20F41FD6
52D13535
E9740000
E15614AD
D3362ABF
AFB771FF
90E6D829
6FD42E03
D520001B
000260C9
04000FEC
85003EF0
55014D1E
E05A07BC
000ABF81
74AFE81F
2C7F21F8
A7042E7F
F017DDFF
02DE3961
7E8B296F
7225A44E
D213829D
893D022E
0561689D
08C0614B
071B7A57
B4060000
2BA674DB
20BF479D
21C0FD28
F4C811F3
BFEF48C1
6C531F7C
2583FF07
A807FC01
CAF6869E
8FAE1269
7FE91643
BF70FC2A
3EAAC43F
CB7007EA
9844067C
20075118
307FFF02
6EA12A49
40E7CB58
2D0F6382
D9BDD583
AF84505B
FFA7DA1C
4BE6EDD1
46540000
4A1EFF12
1591EFB1
37796B45
73F59B58
3E355DC1
723BC72D
915E6883
5BF14004
CE100AAF
81C02E17
3E2F7EEB
F8A3D17C
608887E6
D5807BEF
D80BE327
00E7E000
0E710601
8F10F3DA
E8060FFF
E1DC89D4
DBF8254F
272F329A
5FD2105D
1026163D
10F10000
779A34C9
EF6B2255
5321653B
1E28EF30
1EE72401
F9B04002
40A2E0A5
FE550035
87F0433A
9F0017FE
1C23DA91
80803C3C
3DAF83B8
D41EFEF3
377F7E34
DFF3E8E8
2E3F1F00
D0FC6047
382504A6
DC8410AF
8960017F
424069F7
E2E648AB
9B95F8E0
B8610000
3F9BDDFA
7A94584D
8CD281E3
63CB254F
A679FBE1
1B957E86
E29DCEDE
03AAFFC2
7B823E0F
F7C0DDBF
3F0468F3
E4019CBF
C26A07D0
2088FD22
600E8128
00F00A3F
06050108
40A79309
90027A2B
0F26A15F
5B9E0BDE
AF69BA0A
7FAF89FB
C887004A
BE570000
F9C1B762
5175F11D
D8461474
78BF37DE
92803E04
2DB6D033
126EA3BB
1F6E2C62
EAE7F6E7
0BFCCE63
DC817A33
C062020F
01D583F4
9E001B52
BBC7BBC5
502B88BD
06C3AF60
0BB43D10
99D5A484
2DA24091
39F8170A
AFCD4E11
A9D10827
F096ADDD
9D070000
1B027C7E
286196D3
57FE4AF9
CF4A9A7B
A39AC168
A1D80029
0B000049
340016E7
4002C2F8
047BB3B4
37DFBAFF
AF267FF3
4E8DFF77
2B3FD847
7FD7E942
7EFA5D0F
FE813AE7
D20DA315
7A8A8A09
163A045A
CC6A4844
7282B3EE
F101A780
82468AD2
F8CC0000
C06CDBBB
25EB62F6
676E85FF
A80EBDE6
3EB99C15
02B617F0
16C07E83
A40DF85B
9EF75071
642FE87C
61F4C562
5FB5FC1D
F40FF167
9FCF1879
27E00537
1E086EA3
E25C2F3F
35E012AB
24F536F8
27D28680
BFABE039
2C9506EA
EDBE1C82
7FFD341D
4BC90000
B1E59D76
5B467343
558B3840
06469462
844B7D08
D6C0B02D
5DA87F7C
4D837DD7
9ADFE23F
D9FC1A3F
7AD4BBEB
C83FFEFF
017FEFF4
34C3FC41
AB5FE265
58F892F8
032E1200
042E9800
0656A009
903B00F9
A6B8FDF3
4DAB7C35
1F8F8550
BCB96868
77BF0000
513A5E0C
BDE2FEE0
CD0A30F7
070CE241
8AAF043E
FD3B08E7
A72803FF
F84077E6
BA87FF2A
D8526DE1
8001F6F8
85645F97
CBDDFB60
F47FAF76
F9AFA536
7F9DA87F
A75215BC
112443E0
89913A01
CE7036BD
C71FFF2E
661A2839
F00844E4
A016F8C6
B3930000
0F639400
2E969B9F
79F4E5B2
B98C0D2F
D830729F
CA8A7448
4A14B5A0
32E5BF17
1416B691
04FE86E8
71F0A22F
1B832471
FA309F84
A180F039
A82E0763
4DC0FD8F
5E2FF7BF
E2F31BFF
BF329FC1
DE2FF837
62F619E0
DC1A8142
156EAB4A
0A102A5E
B9CB0000
F493A132
D1E9551F
EBBA62C7
9DCDF2FF
D94977D6
4241611C
106C0840
BC270229
40480C28
008A70C0
016B6000
02FF0BD0
0CCB7E53
76AFE5FE
6F7F84E1
DFD97EDF
FAFFF47B
7779DFAE
ABEBEC8B
FE9D001F
3BA000F8
D5601886
ED3448C0
CAE63AC0
1C530000
3A539696
37080C46
7958F082
7BC2BA31
4D8B218A
DDB88661
34594EB0
01EDB9C2
BD76FC19
FE36E3FF
F5F247FC
E4B8FFCF
E18F01FF
1A900FF1
08807911
040EC013
21205319
0702438F
589801F8
02E0BF00
1E6FE83C
CDEBFA57
969D6358
7D36D381
05250000
F0C83D34
B353BE78
8632B9B7
A4E74574
00854530
090DEF6D
8E81FFA5
8803F8AC
803F03C2
00C00716
17C2D721
800E3F84
09CFF890
FC7F0CA3
BBE0457D
C856360F
004F56B1
027DC210
3F64F40C
BB2FA2FE
D487048D
83401461
F0DD47B8
4578D63B
927D0000
89B9E88C
2647712F
255B9609
97510FFF
9018D3B2
DB77C120
20A10266
46E1A004
EAEEC0B6
8BFE3D51
5FF7E808
FFC40002
32F6005B
C77097F9
67C05F76
BE6BFEAD
FC2F100F
B618377B
68636009
83934BA8
06385081
BCF5C2F3
B81003C2
10221825
67330000
CDAF6113
A0B2BE1C
91ABB039
6C8C5558
B8DC1E83
A60BD005
1EFF21FD
67F27FD4
932D6EE6
813E46A0
0E040898
00F68404
02582876
86C207F9
4C02F7A7
E00EF7FE
04A31A6C
3F377D8B
FFC3BFEA
49284EE1
B0CFF26F
D3BD9547
34E17D3E
82828113
8E1C0000
3D19AE01
7D0B47E8
24122E00
1D700440
FEF77200
3F233009
0D85A01B
28C40259
BFB01D59
FF0867FF
FC11AFD7
54397EFD
8389A79A
0383FA30
D8070793
80E1F248
162C4395
13A26129
863F4290
4722076B
F660021F
F5AF163F
7DFE0E77
FD4705C5
A3EB0000
D8C9E807
3418C506
20149179
EFFFE1F8
D170E781
112F54F2
3EDC3903
36A38C0E
0035C3A0
00DC0020
0CD1482D
3E1CD9FD
33A5FA7F
D43FFFF3
5DF9FFDB
7827E4BF
47FF00A1
7ED1DE03
AE2AF17D
2CC65009
72B002A5
8338CB4A
E304A3D5
1F4BD0E0
89A20000
28DC39BB
08DA1F81
D937F09A
A1355AC7
FB509048
C67A900A
A7C000B4
FA407BF3
F5CFDB17
7FFFCF5F
C7B797FC
357E6F01
7F49E00B
DEC40075
25C02390
6A0579C0
40401CF8
80C20D36
16CD4242
47617801
401DFE23
9AD34F75
2A4D6AB3
3FCB1B2F
8FD10000
607B7F59
481625DF
C065EF13
7F75865F
FD3FD99A
5FABE8A2
93FA0F53
AC00E8BA
E03E01F8
03E0EE40
F82FC63E
E1D45FF4
1E9E47A2
D98C7D71
573F5691
00246E34
009EF440
0EC4B100
F9EBC21F
BFF8427F
71FE1DB3
A1AB57B3
0783F8F8
908A58F5
2EBC0000
79CAD2BB
E6B8C733
FAC169A1
FDAD13FF
00DA1FA0
0E92E480
0ED0B607
9C5FDA6A
503AC3D6
02D50884
6FC4483F
FC3FCBFC
45405F63
C9278BEE
2210BEDB
000D6D3E
00FFDFA8
9FE79EC4
BDBF39CF
4FF84880
A773721C
07DAFA05
FBF6F7CE
867C8C1C
FC880000
2FBF984B
89759423
DA7B2FE8
33F94540
3725AC90
D0500014
0488087E
596803D4
7F00573B
FC09047F
F2431BFF
ECC3FDF8
F04FFFED
11BFFF40
C6FFB23C
1FFB36A1
FE012614
1F4A4C00
C9C6A0EA
829900A1
5C4C01E5
8A99FCDE
D205F053
459F0FAB
4C5B0000
01AD5F85
0F7CC141
944EA6B5
CBD1195B
B2E2776F
3A40B7BF
0D80283B
C8309CFC
8B83D90B
C82F2E39
876C557F
4C10FFF9
E5A7FC19
42F7C509
48F85006
6E1F9511
41F8F13E
2FD133A5
FC23CF6F
E1287C7C
9ACCD3F0
39FFAEFD
4AE85929
880004A6
52300000
87D46313
7A600A4C
D41A651F
4B04589D
C844EF7F
44CBFBE0
107FCE84
93F82211
DF8DD75B
F03E1236
05F6C210
7C028207
BB10807A
54978FF9
1ED8FE90
3F0FBF95
41BE0F4E
37EB2144
EF0C26FA
1B680C1D
2BDE6841
90AB500C
05FC2391
7058DB28
12620000
633B814A
04EB9EC2
D44CC470
82A752D9
D1CC2BF9
DF4E6FFE
D10BBFF2
167FE7AA
97C73FFC
CC33E57C
407DB7A4
0CCEE880
5561E747
690B4014
863102C1
7A801463
FD0115CF
547B25D8
0EC89C43
B742948D
C7C47FF6
8A4BEFAB
B287E362
1858648E
468F0000
80C4E2C2
5209DD05
72A40C7D
828DC109
5EAD44D0
3649CFFF
DE8FD89E
81F217F1
1F8112E1
F910F2BC
1C084E07
1860C0FB
A38C7F66
6D0BFC22
00FF0028
47F60CB9
3EA49703
6E1FCA40
DF5F0181
E00CA82F
2DCE8562
15CC399B
67F3BCFD
A2EBE39A
08650000
7B1918CC
C95F6DBE
3B74B4D6
8751C857
FE3572BF
702E8E7E
5EE0349F
AA0D9976
21720A7E
D6852B8B
767AF06F
FF7C34FA
65390FA3
E124E872
6E421D2E
8808908D
81125B55
3C220F79
8A5C5DA8
0770FE47
FFD1B84C
5A509169
4E36CEF2
515BABF7
48750000
35004A3E
6EA45463
40F085E1
112FD300
93F010FF
FEE32106
EA270BC4
96FB59C1
FDDD7009
B7AF977D
79BAB57F
098AE3B0
3E630001
97016073
B0009298
0222C278
1A01173A
B4B116EF
00D03FD4
85BBBFF8
A62FFF89
227F9A28
11AF4620
CC5CDE30
C0580000
A1E1576A
E37FA966
6989965E
3DC3C148
EF47930B
DFC0C80F
AF28003D
9EE203E4
49005E28
00002CC2
0800F4BC
01226FC0
22A1F92D
5CBB8036
AB6B7FE1
5CBFF496
8A2F8323
FEFBCEB4
F689FFF3
B86DC114
731E0896
A5460415
88802F5B
06069DF0
1DC90000
EF52CF11
FB5313A6
30BC18A7
02EF0800
7C03A002
FD200047
B30B82DC
42FC29DF
5FE10C3B
FE21477F
F85437E7
F662789C
35D925EB
89C139A1
509F2CEA
11409C80
FF08A80B
B89AD1EC
8AE60BEF
25A44893
EA29E5D6
0CCD07A3
D832E129
DF889033
2DCE0000
