0A62C7C0
FF10B7FF
9FCD0ED1
28B29002
D4F937FC
31DDFBF7
FFDACFFF
12CF9C02
025D937F
4EF22FF8
F66C2F58
623D80DE
2A0707DD
71578007
7FC7ABC3
1ECECF3F
1F82F26E
BFD540C7
2FE30DC3
ED96E828
20086806
3F47C903
1E4D4009
F83ED5FF
FE1A703F
03FD7AE8
7FE67B67
3FFD3F52
ECFE713F
FFF9B000
9F014DF1
3CCF19E3
EA069B7F
008DF2D5
61097D27
81062FA5
F41DF8AF
CF7E9FFC
0F4409F0
17F41D01
22C07882
FE615FFF
01CD8800
87DAA9FC
07E62720
55083B18
E0F27FFD
3E12210F
5B802803
C01ED3E8
E849A7FE
0EBA4820
FD0D806F
845C87F0
80F3DB7C
8042EBF8
BBCD9E52
C078EFE4
FC297AFF
9FC253CF
0B00103D
FFEEDF46
7B8BEFC7
FDBB1803
028881BC
80390528
FFA60A23
F5FA2E2F
C98EFEB6
C299A77C
0D657B40
8C079BF8
86D587C0
E0E1254F
701EC80F
F89AF74F
F00B5FC7
07AD3BF0
7FF175FE
E006CA7C
90078BFC
FFD5985F
3FF67FC3
F1FB07FF
CF0827FC
8EB3DCF8
77D31E57
38068D27
FFB04FFB
58DC20FF
7AF95A01
054BFE51
3D8EEBE9
3E0130B7
77FB6403
891A3104
D20FAD3F
007B77B8
E05A07BC
7FE91643
3E2F7EEB
1C23DA91
3F0468F3
DC817A33
37DFBAFF
61F4C562
7AD4BBEB
8001F6F8
71F0A22F
016B6000
F5F247FC
17C2D721
5FF7E808
0E040898
FC11AFD7
0CD1482D
C7B797FC
F82FC63E
6FC4483F
F2431BFF
876C557F
05F6C210
407DB7A4
1C084E07
767AF06F
79BAB57F
0800F4BC
F85437E7
