CFBFF488
01A600C3
0F3F8CF0
DFC1ECB4
D0031B54
95084470
1C270550
03F002C4
3EA106FD
840A0178
0187C7C8
E0006E59
0A79A879
A7E0121A
00118100
800A4605
FE04945F
87FA03F4
7FFE0CAF
BA7379EE
C3E170D0
C0F00180
02270454
1BE03663
5823D1C9
7F896C70
C0284322
C87D0230
E00FA576
CC87D02E
1CBEDC74
E07A658C
80068B46
2B196B9F
7800F667
1F818602
C0211EF5
700FC843
47BFFE70
FE2A358F
DEF02FB6
44000040
E411FEAF
640E3CA6
629D5E66
F01FB747
07006B02
A8017210
E09A2C1F
A702EB42
181131D4
7CD8B75F
01F01F64
F49C99F7
3FF0AB31
3F3F3284
1DB11FFC
57680944
B01FFBD6
0FE80388
E00FF8BF
CBB00B70
BEBB1DF0
7C87E027
8F17B268
CDFE5797
57E15318
CFC065F8
DE567CE4
6B109799
F2DB2CDB
E8FFF2C1
643D5E0F
4800D6D0
82F2AD40
C7012DED
926AEB04
3DEA3545
B385242F
A0037BF9
10F443EA
B87CF4B3
07F403F0
8005D269
207A23D1
3CFC55FD
5701C9BB
2074695C
C7F809E1
E20F8625
42F9D2B1
A776AEA0
38FC439E
E1DC14EA
9807D738
F72BB8CF
801667EC
BFE10F07
F017DDFF
20075118
00E7E000
DFF3E8E8
00F00A3F
502B88BD
7EFA5D0F
1E086EA3
58F892F8
7F9DA87F
4DC0FD8F
DFD97EDF
040EC013
C856360F
BE6BFEAD
E00EF7FE
80E1F248
7827E4BF
6A0579C0
00246E34
000D6D3E
1FFB36A1
6E1F9511
3F0FBF95
7A801463
47F60CB9
8808908D
0222C278
5CBFF496
11409C80
