28442CEC
03BE93FF
FE38CB2B
07FD11F2
9182399A
3392D7D0
055675F0
921EEC4D
8C4E67F4
F8250DAD
120882D6
2527C742
C47F61C7
6FD7BE28
DC43E972
21E0F646
72BECA80
F4E06896
6FA9C8AE
747A47CD
A8AA64C9
9435B7FB
45B814E3
09B9980D
FA15A32A
E63CAC2D
44EA4320
96422DB1
43B55256
FACCBE3D
076ECC0D
17A873D2
A7F4B9BF
F1EEFD4F
E1C4DC45
14422471
7C32F56A
03119BF9
8D72E4C7
78A1D923
66908F28
786CE421
D1888CB7
8317229A
040302F6
96C743D2
5633DD2B
243E7265
43A4DD1F
D3A4E543
FA426A96
7822D64E
FA0CAB90
FA391358
861CCFCD
F8526BA6
0BB8F748
BE77704E
6F2E6548
52A5C84A
60AEF808
E9B102D4
ACC06FB3
62681A35
