1BA8080A
465857D1
F65DFDF1
8989A1B2
77F605BB
9F49A44A
F692E71C
FEF97A9C
C86A5328
54E4C961
DADA456C
984DE6D6
6223B732
BA471B91
33E1E11F
F7D2B534
8DDF9758
607EB892
5DDC37F0
8A1153E9
3DBF211A
FD2979D4
8833C2CE
2DFBF71C
04B14AEC
2F967BBB
5FFDBA58
FFD321A6
51F8B5A5
232D0222
D2F7FDAA
8743ECEF
F54EEB6E
12A28F9E
04F981A4
A54EDC3F
D8B383AE
0E0865A4
99E4EA01
AFA46FF3
DEC745E9
315CC18C
3380680A
02E88856
4EDA7266
0FD5A8C8
09B26963
CE9D2512
BFF7DC70
EDA93D7B
42720363
06C4A6ED
DD79BC98
57F04ED3
122CCD91
FAE34296
57B347E7
12FAE312
51D2F03E
2B36F6FF
B9172A4C
3F4F2F48
3A7FD057
6D9F3541
4C71F900
0B0B9587
090F987D
47DEA0DC
96A776F1
BFFC3D84
8D9C3DA3
320E74CF
7F48A5FE
FFFF5C93
8050BCDE
C0E1A668
D9EB0E8A
080B5B25
209E7074
E53E5092
C36F05E9
4E961647
EFFEDDD6
6C9948C2
7B5B26BC
7550B7F2
B6FDAD31
1CD7D520
A41CA34A
00355F70
FDDDFB8F
9AA7961F
CB73F934
9A7EB624
40643F0A
4A091048
AF0356FB
52D13535
071B7A57
4BE6EDD1
1026163D
9B95F8E0
C887004A
F096ADDD
82468AD2
7FFD341D
BCB96868
A016F8C6
0A102A5E
CAE63AC0
7D36D381
4578D63B
10221825
82828113
FD4705C5
1F4BD0E0
3FCB1B2F
908A58F5
867C8C1C
459F0FAB
880004A6
7058DB28
1858648E
A2EBE39A
515BABF7
CC5CDE30
06069DF0
DF889033
