AB980BA3
D2131010
7BBA00AB
DFA3D745
0E4FFC59
C28C1DD4
A27AB816
EBD81C98
CB4CCDE3
CBDFFF0E
CBE3751F
903FFFF2
7F5E0E91
E51D6F45
A7F42953
7B8E0724
E90E82BA
44974AFE
988581D9
7A7BFEC0
30ED83CF
7BDC0D5A
AD7F811D
5625FE83
CC7B7E04
436B3845
82E1250F
F5678C8C
C3F7F0B4
1E6ED486
0DB20039
8179C34F
CF71EB5E
EE2809FE
20E3F171
1D8C81C7
EB7FFB13
890E98EA
A0810370
5CC5803B
4FDF109A
E22BFEA8
B944125A
C5DFFB8A
2141FF8E
7867E28B
02823870
06A4D304
F8D100CC
766E22AE
2FC712A5
F8B71CAC
158013B4
7E2012E0
3E01FB45
03800F45
5CE2F9DB
C28EF9C4
518BBF7B
FB7DF12F
E5A30367
49FD6884
60880079
E99F400C
D09DFE16
9FA80012
F51FD71F
F122DED7
A6D8763B
2B82C390
01500081
77E0033B
FEBEFA06
37420846
21F0DDFA
D7D43E0E
474A19FD
F1804FFE
099C5CD8
33E7BDA4
EA2CA9CF
F7B0022D
1E3BDFF5
919FFB3B
7E96FBF9
A507D725
86EC0E38
4FE20705
C48203B9
6FC7FFD3
8A915857
29C506BB
7C2CB2EC
34B26DC1
6CFA8267
A2B7EE8E
63FB9D1E
7E6DB054
893D022E
D9BDD583
DBF8254F
8960017F
5B9E0BDE
39F8170A
CC6A4844
BFABE039
A6B8FDF3
C71FFF2E
62F619E0
3BA000F8
1E6FE83C
D487048D
06385081
B0CFF26F
F660021F
72B002A5
401DFE23
71FE1DB3
A773721C
5C4C01E5
9ACCD3F0
2BDE6841
C7C47FF6
2DCE8562
FFD1B84C
A62FFF89
731E0896
EA29E5D6
