116A0000
D0B90000
79B70000
1D1F0000
D63B0000
58CB0000
A9560000
67F70000
68480000
20740000
44640000
921E0000
52C90000
B4690000
86C30000
EBE40000
09540000
AEFD0000
B5E10000
2A670000
53260000
CFF90000
EB780000
A0DB0000
29430000
DB210000
CFC20000
E9AB0000
932D0000
44DE0000
FEE60000
7A9D0000
A52D0000
AE2A0000
0A680000
6E740000
E3880000
54960000
918C0000
247D0000
647A0000
F67E0000
698B0000
20990000
F9180000
E4120000
F95A0000
B0FC0000
67DB0000
4AEF0000
8AC00000
7FF60000
43FB0000
D37B0000
91D50000
CBD70000
5B490000
7D750000
F53D0000
BF5F0000
92ED0000
771C0000
ACE60000
DA000000
4C140000
EE910000
05DB0000
9B350000
6EF90000
91A60000
B6B90000
AC2F0000
87780000
A4C50000
05240000
4AEE0000
61D90000
F4480000
40B70000
A7B10000
4A500000
10040000
AB240000
69880000
E2880000
B3CF0000
F4150000
49DA0000
2AC70000
F7E50000
F7CF0000
CE6B0000
8F920000
7FCE0000
C0100000
925A0000
0CFB0000
E9740000
B4060000
46540000
10F10000
B8610000
BE570000
9D070000
F8CC0000
4BC90000
77BF0000
B3930000
B9CB0000
1C530000
05250000
927D0000
67330000
8E1C0000
A3EB0000
89A20000
8FD10000
2EBC0000
FC880000
4C5B0000
52300000
12620000
468F0000
08650000
48750000
C0580000
1DC90000
2DCE0000
