B0BEFC5C
C450012F
9BF6D703
1F1A4422
06E85102
5903FF3E
20F1E7F9
4247FF04
AC0217EB
285FC082
7855FFF4
09C09BA7
A290005C
98D86CF4
C1D4FFDC
9B051E06
5E86FF9A
62B242E7
2259DF88
A6DC01E9
481BFB8D
EDB43801
ACF9FC89
890E0278
CEDF8470
1DA47F02
7B885401
A36BFEC9
1736152F
10CF9413
AFD70A57
145304FA
7BBCB69A
653C2188
BDC847DC
0400FE20
6C3EF97A
7C9DB25E
FAFF0406
33AD5F22
95537FE0
F76B7733
4A67FD40
6CEFFF66
C88FFFD8
365F84D6
5EA71818
47C01FE0
E2C9F036
9E097F2D
D32A032B
1009FFE1
C0ACC016
FFCFEEF7
7020354E
1E7E6818
D7FE87DD
6465CFFB
616884E3
B694A4C9
FAA379A9
36F3C730
38827C03
5EF9FBCE
203FDE0B
B288040C
32BCB805
43B7FFC3
632FF531
0A03FA18
B6C0C549
A1402000
697F8356
73BCBC0B
6F6328FD
70402615
931BE01C
FE430A21
10420002
E87DF5B6
AA8E07FC
C53E0062
2B9ED5CB
2980FBA2
E33B5E7A
CEDE01F0
694DFFC2
20B6FCB9
7E0C103F
FA20403F
07ED0001
3420A023
D09CBFF5
DF7F8CD7
3875EDA0
06F80696
3568FE2D
7A1AFC1A
000260C9
2583FF07
915E6883
40A2E0A5
E29DCEDE
126EA3BB
0B000049
16C07E83
5DA87F7C
A72803FF
4A14B5A0
106C0840
34594EB0
8E81FFA5
20A10266
1EFF21FD
0D85A01B
3EDC3903
A7C000B4
93FA0F53
0ED0B607
0488087E
0D80283B
107FCE84
D10BBFF2
DE8FD89E
5EE0349F
EA270BC4
AF28003D
B30B82DC
