E89D84FC
DFAC6E82
B4247104
34C27762
2F5EDAD9
E1CE0413
13832E18
B689B70A
40B18849
65710965
FC2C32B2
C0998A61
7F1F9A01
3F834B4E
FB4BBD50
8BFA8063
F17E6E4F
68D9A0E5
7AC86373
443D83ED
38309107
32CBE59E
9E927247
32E14327
D106DB0C
8B04FF8E
EC868489
DCAF4EA8
F1DE5E1B
8A36CDCD
00D14B26
5F1E1E51
B070630E
120928AE
46FD893F
1F92B60E
170D8AD3
F3C1443E
12D30812
EBF351E2
EF0FA9B3
45E98967
35C87382
E1AEA5C4
3CC6FEF0
6BD80EF5
CC435DCA
1E9DB80D
6AE14163
C305A592
17D702D3
177D0391
C93EAD71
F98E7C72
0F49CC0E
112CB5D4
46A900BE
5EFD1340
CCAC2301
ED700403
C2F98071
FD92B462
CA3BDCC1
F60B0A05
